/* Auto-generated by train_autoencoder.py — do not edit manually. */
#ifndef SENSEWARE_MODEL_DATA_H
#define SENSEWARE_MODEL_DATA_H

unsigned char senseware_model_tflite[] = {
  0x1c, 0x00, 0x00, 0x00, 0x54, 0x46, 0x4c, 0x33, 0x14, 0x00, 0x20, 0x00,
  0x1c, 0x00, 0x18, 0x00, 0x14, 0x00, 0x10, 0x00, 0x0c, 0x00, 0x00, 0x00,
  0x08, 0x00, 0x04, 0x00, 0x14, 0x00, 0x00, 0x00, 0x1c, 0x00, 0x00, 0x00,
  0x98, 0x00, 0x00, 0x00, 0xf0, 0x00, 0x00, 0x00, 0x64, 0x08, 0x00, 0x00,
  0x74, 0x08, 0x00, 0x00, 0x24, 0x10, 0x00, 0x00, 0x03, 0x00, 0x00, 0x00,
  0x01, 0x00, 0x00, 0x00, 0x10, 0x00, 0x00, 0x00, 0x00, 0x00, 0x0a, 0x00,
  0x10, 0x00, 0x0c, 0x00, 0x08, 0x00, 0x04, 0x00, 0x0a, 0x00, 0x00, 0x00,
  0x0c, 0x00, 0x00, 0x00, 0x1c, 0x00, 0x00, 0x00, 0x3c, 0x00, 0x00, 0x00,
  0x0f, 0x00, 0x00, 0x00, 0x73, 0x65, 0x72, 0x76, 0x69, 0x6e, 0x67, 0x5f,
  0x64, 0x65, 0x66, 0x61, 0x75, 0x6c, 0x74, 0x00, 0x01, 0x00, 0x00, 0x00,
  0x04, 0x00, 0x00, 0x00, 0x90, 0xff, 0xff, 0xff, 0x0c, 0x00, 0x00, 0x00,
  0x04, 0x00, 0x00, 0x00, 0x08, 0x00, 0x00, 0x00, 0x6f, 0x75, 0x74, 0x70,
  0x75, 0x74, 0x5f, 0x30, 0x00, 0x00, 0x00, 0x00, 0x01, 0x00, 0x00, 0x00,
  0x04, 0x00, 0x00, 0x00, 0x6a, 0xf8, 0xff, 0xff, 0x04, 0x00, 0x00, 0x00,
  0x0c, 0x00, 0x00, 0x00, 0x6b, 0x65, 0x72, 0x61, 0x73, 0x5f, 0x74, 0x65,
  0x6e, 0x73, 0x6f, 0x72, 0x00, 0x00, 0x00, 0x00, 0x02, 0x00, 0x00, 0x00,
  0x34, 0x00, 0x00, 0x00, 0x04, 0x00, 0x00, 0x00, 0xdc, 0xff, 0xff, 0xff,
  0x0f, 0x00, 0x00, 0x00, 0x04, 0x00, 0x00, 0x00, 0x13, 0x00, 0x00, 0x00,
  0x43, 0x4f, 0x4e, 0x56, 0x45, 0x52, 0x53, 0x49, 0x4f, 0x4e, 0x5f, 0x4d,
  0x45, 0x54, 0x41, 0x44, 0x41, 0x54, 0x41, 0x00, 0x08, 0x00, 0x0c, 0x00,
  0x08, 0x00, 0x04, 0x00, 0x08, 0x00, 0x00, 0x00, 0x0e, 0x00, 0x00, 0x00,
  0x04, 0x00, 0x00, 0x00, 0x13, 0x00, 0x00, 0x00, 0x6d, 0x69, 0x6e, 0x5f,
  0x72, 0x75, 0x6e, 0x74, 0x69, 0x6d, 0x65, 0x5f, 0x76, 0x65, 0x72, 0x73,
  0x69, 0x6f, 0x6e, 0x00, 0x10, 0x00, 0x00, 0x00, 0x70, 0x07, 0x00, 0x00,
  0x68, 0x07, 0x00, 0x00, 0x18, 0x07, 0x00, 0x00, 0xe0, 0x06, 0x00, 0x00,
  0xc4, 0x06, 0x00, 0x00, 0xf4, 0x05, 0x00, 0x00, 0xe4, 0x03, 0x00, 0x00,
  0xd4, 0x01, 0x00, 0x00, 0x04, 0x01, 0x00, 0x00, 0xb4, 0x00, 0x00, 0x00,
  0xac, 0x00, 0x00, 0x00, 0xa4, 0x00, 0x00, 0x00, 0x9c, 0x00, 0x00, 0x00,
  0x94, 0x00, 0x00, 0x00, 0x74, 0x00, 0x00, 0x00, 0x04, 0x00, 0x00, 0x00,
  0x26, 0xf9, 0xff, 0xff, 0x04, 0x00, 0x00, 0x00, 0x60, 0x00, 0x00, 0x00,
  0x10, 0x00, 0x00, 0x00, 0x00, 0x00, 0x00, 0x00, 0x08, 0x00, 0x0e, 0x00,
  0x08, 0x00, 0x04, 0x00, 0x08, 0x00, 0x00, 0x00, 0x10, 0x00, 0x00, 0x00,
  0x24, 0x00, 0x00, 0x00, 0x00, 0x00, 0x06, 0x00, 0x08, 0x00, 0x04, 0x00,
  0x06, 0x00, 0x00, 0x00, 0x04, 0x00, 0x00, 0x00, 0x00, 0x00, 0x00, 0x00,
  0x0c, 0x00, 0x18, 0x00, 0x14, 0x00, 0x10, 0x00, 0x0c, 0x00, 0x04, 0x00,
  0x0c, 0x00, 0x00, 0x00, 0xcd, 0x98, 0xa3, 0x75, 0x1a, 0x14, 0xd0, 0xc4,
  0x02, 0x00, 0x00, 0x00, 0x02, 0x00, 0x00, 0x00, 0x04, 0x00, 0x00, 0x00,
  0x06, 0x00, 0x00, 0x00, 0x32, 0x2e, 0x32, 0x31, 0x2e, 0x30, 0x00, 0x00,
  0x92, 0xf9, 0xff, 0xff, 0x04, 0x00, 0x00, 0x00, 0x10, 0x00, 0x00, 0x00,
  0x31, 0x2e, 0x35, 0x2e, 0x30, 0x00, 0x00, 0x00, 0x00, 0x00, 0x00, 0x00,
  0x00, 0x00, 0x00, 0x00, 0xc4, 0xf1, 0xff, 0xff, 0xc8, 0xf1, 0xff, 0xff,
  0xcc, 0xf1, 0xff, 0xff, 0xd0, 0xf1, 0xff, 0xff, 0xbe, 0xf9, 0xff, 0xff,
  0x04, 0x00, 0x00, 0x00, 0x40, 0x00, 0x00, 0x00, 0x73, 0x42, 0x2d, 0x3e,
  0x52, 0xa5, 0x73, 0x3d, 0xa1, 0x4d, 0x38, 0xbd, 0xda, 0x9c, 0x08, 0x3d,
  0x7c, 0x90, 0x20, 0x3b, 0x5d, 0x2a, 0x1f, 0xbe, 0xd2, 0x4c, 0x39, 0xbe,
  0x1e, 0xb3, 0xd0, 0x3d, 0x61, 0x13, 0xcf, 0x3c, 0x5a, 0xdc, 0x1c, 0xbd,
  0x56, 0x7b, 0x32, 0x3b, 0x9c, 0xce, 0x1a, 0x3d, 0x7b, 0x76, 0x05, 0xbd,
  0xcd, 0xa8, 0x25, 0x3d, 0xb0, 0x65, 0xb8, 0x3b, 0x24, 0xed, 0xa6, 0x3d,
  0x0a, 0xfa, 0xff, 0xff, 0x04, 0x00, 0x00, 0x00, 0xc0, 0x00, 0x00, 0x00,
  0xfd, 0x5c, 0xe2, 0x3e, 0xbc, 0x7f, 0xae, 0xbe, 0x82, 0xd8, 0x68, 0x3e,
  0x35, 0x93, 0x49, 0x3e, 0x99, 0x42, 0xa6, 0xbe, 0xef, 0xf9, 0xd7, 0x3e,
  0xe5, 0x72, 0xee, 0x3e, 0x81, 0x26, 0xa4, 0x3e, 0xa8, 0x3e, 0x51, 0xbe,
  0x96, 0x5f, 0x77, 0x3e, 0xc0, 0x5f, 0x1f, 0xbe, 0x9f, 0xbf, 0xf8, 0x3d,
  0xee, 0xd8, 0x00, 0xbe, 0x5b, 0x4b, 0x1b, 0x3f, 0xf1, 0x77, 0xea, 0x3e,
  0x58, 0x65, 0xe4, 0xbc, 0xa6, 0xfd, 0x8e, 0x3e, 0x31, 0x8a, 0x79, 0xbc,
  0x6a, 0x4c, 0x15, 0xbf, 0xd4, 0x20, 0xe6, 0x3e, 0xae, 0x45, 0x3b, 0xbe,
  0x5e, 0x20, 0xc7, 0x3e, 0x61, 0x0d, 0xa1, 0xbe, 0xc1, 0xaa, 0x5b, 0x3d,
  0xa5, 0x23, 0x6b, 0x3c, 0xe8, 0xae, 0x12, 0x3f, 0xec, 0x9b, 0xe1, 0x3e,
  0x81, 0x2e, 0x57, 0x3c, 0x79, 0x9a, 0x0a, 0xbf, 0xff, 0x51, 0xdd, 0xbe,
  0x46, 0xc3, 0x9f, 0x3e, 0x2a, 0xf4, 0x24, 0xbe, 0x7a, 0xbd, 0x3d, 0xbf,
  0xcf, 0x22, 0x2b, 0x3f, 0x34, 0x30, 0x4a, 0x3e, 0xab, 0x46, 0x07, 0x3e,
  0x35, 0x42, 0x95, 0xbe, 0xfe, 0xe5, 0xeb, 0x3e, 0xf8, 0x07, 0x11, 0xbf,
  0xa7, 0x1e, 0x53, 0x3d, 0xb0, 0x79, 0x68, 0x3e, 0x4b, 0x9f, 0x19, 0xbe,
  0x48, 0xc6, 0xa9, 0xbd, 0x58, 0x67, 0x17, 0x3e, 0x3b, 0xe1, 0xa0, 0x3e,
  0xc3, 0xd6, 0x04, 0xbf, 0x43, 0x05, 0xbb, 0xbe, 0x8d, 0xb7, 0x66, 0x3e,
  0xd6, 0xfa, 0xff, 0xff, 0x04, 0x00, 0x00, 0x00, 0x00, 0x02, 0x00, 0x00,
  0x80, 0x56, 0x2f, 0x3e, 0xf0, 0x47, 0x4e, 0xbe, 0x79, 0xd7, 0xa4, 0xbe,
  0xf2, 0x48, 0x4d, 0x3e, 0x1a, 0xb9, 0x8e, 0x3e, 0x13, 0xfb, 0x96, 0xbc,
  0xfa, 0x46, 0x8b, 0x3e, 0xcb, 0xd9, 0x7e, 0xbe, 0xc4, 0xb9, 0x80, 0x3d,
  0x9d, 0x06, 0x90, 0xbe, 0x06, 0xd4, 0x8f, 0x3e, 0x81, 0x71, 0xe8, 0x3d,
  0xee, 0x18, 0xd2, 0xbe, 0x78, 0xb1, 0x1f, 0x3e, 0x77, 0x29, 0x07, 0x3f,
  0x51, 0xb0, 0x03, 0x3f, 0x76, 0x29, 0x3e, 0xbd, 0x2a, 0xec, 0xc3, 0x3e,
  0x48, 0xab, 0xc9, 0xbe, 0xf6, 0xb0, 0x09, 0x3e, 0x90, 0x60, 0x25, 0xbb,
  0x31, 0x9f, 0x4b, 0xbd, 0x69, 0x70, 0x4e, 0xbe, 0x12, 0x54, 0x30, 0xbe,
  0xb9, 0x13, 0x20, 0x3e, 0xe9, 0xfc, 0x9e, 0x3d, 0xb5, 0xe8, 0xf3, 0xbd,
  0xad, 0x9a, 0xfc, 0x3d, 0xd4, 0xbe, 0xd3, 0x3e, 0x94, 0x15, 0x69, 0x3d,
  0x16, 0x3f, 0x10, 0x3f, 0x57, 0xae, 0x04, 0x3f, 0x46, 0xfe, 0xb8, 0xbe,
  0x09, 0xcc, 0x0b, 0x3d, 0x97, 0x27, 0x5c, 0x3d, 0x9a, 0xb5, 0xd9, 0x3d,
  0xc7, 0x5a, 0xf9, 0xbd, 0xbd, 0xd7, 0xfe, 0x3e, 0x08, 0xd9, 0xab, 0x3e,
  0x85, 0x06, 0x90, 0x3e, 0x3f, 0x4e, 0x9a, 0xbe, 0xf9, 0xe6, 0xda, 0x3e,
  0x0a, 0x4d, 0xe6, 0x3d, 0x5b, 0xee, 0x1e, 0x3e, 0x0a, 0xf7, 0xd1, 0x3e,
  0x48, 0x94, 0x1e, 0xbe, 0x0d, 0xab, 0x52, 0x3e, 0x96, 0xfc, 0x42, 0xbe,
  0x05, 0xe9, 0x2c, 0xbe, 0xc1, 0x03, 0x61, 0xbe, 0x6b, 0xa6, 0xfb, 0x3d,
  0x7d, 0x1a, 0x69, 0x3e, 0x2a, 0x69, 0xd0, 0xbb, 0x92, 0x3c, 0x57, 0xbd,
  0x64, 0x32, 0xef, 0xbc, 0xbc, 0x5c, 0x1b, 0x3f, 0xc9, 0xb0, 0xa2, 0xbd,
  0xdc, 0x47, 0xdf, 0x3e, 0x86, 0x69, 0x31, 0x3f, 0x6d, 0x91, 0x9c, 0x3d,
  0xf8, 0x35, 0x63, 0xbd, 0xd3, 0xe7, 0x9a, 0x3e, 0x00, 0x61, 0xe9, 0x3d,
  0x5f, 0xd4, 0x69, 0x3d, 0x69, 0x4b, 0x9d, 0xbe, 0xa4, 0x3a, 0xe7, 0x3e,
  0xc4, 0x60, 0x68, 0xbe, 0xd5, 0x9d, 0xd9, 0xbe, 0xa2, 0xc4, 0xb2, 0x3e,
  0x9e, 0x21, 0x3a, 0x3e, 0x0c, 0x05, 0xab, 0x3e, 0x79, 0x88, 0xbc, 0x3e,
  0x9e, 0x3a, 0x94, 0x3e, 0x11, 0x8f, 0xea, 0xbe, 0xcb, 0xcb, 0x9f, 0x3e,
  0x93, 0x9a, 0x5f, 0x3d, 0xec, 0x4f, 0xa3, 0x3c, 0x56, 0x7a, 0x9c, 0xbe,
  0xb8, 0x0d, 0xa6, 0xbd, 0x31, 0x36, 0x85, 0x3e, 0x6e, 0x00, 0x91, 0x3e,
  0x6a, 0x3e, 0x11, 0x3f, 0xb0, 0x90, 0x6b, 0xbe, 0x53, 0x35, 0x36, 0x3d,
  0x57, 0x07, 0x87, 0x3d, 0x0f, 0x85, 0xa5, 0x3d, 0x15, 0x18, 0x0c, 0xba,
  0x33, 0x85, 0xe5, 0x3e, 0xd1, 0x85, 0xdf, 0xbc, 0x16, 0xbb, 0xf2, 0x3e,
  0xce, 0x39, 0x30, 0x3d, 0x46, 0xc3, 0x06, 0xbd, 0xd2, 0xd3, 0x36, 0xbe,
  0x59, 0xa5, 0xd3, 0x3e, 0x5a, 0x1f, 0x8b, 0xbe, 0x45, 0xd7, 0x04, 0x3f,
  0x6c, 0xcf, 0xd8, 0x3e, 0x30, 0x9b, 0x61, 0x3e, 0x16, 0xc5, 0xee, 0x3e,
  0x82, 0xd9, 0x48, 0xbe, 0x57, 0x54, 0xbc, 0x3e, 0x0c, 0x6f, 0x74, 0x3d,
  0xd4, 0x89, 0x90, 0xbe, 0xf2, 0x62, 0x19, 0x3f, 0x9e, 0xa0, 0x08, 0x3f,
  0xe7, 0x06, 0xc5, 0xbe, 0x13, 0xde, 0x9e, 0x3e, 0x02, 0x2f, 0x1c, 0x3f,
  0x1f, 0x11, 0x5e, 0x3e, 0x43, 0xc8, 0x81, 0x3e, 0x4c, 0x00, 0x3a, 0x3e,
  0x78, 0x74, 0x2c, 0x3d, 0x31, 0xf4, 0xd4, 0xbc, 0xbb, 0x39, 0x91, 0xbd,
  0x55, 0x52, 0xb4, 0x3e, 0xdc, 0x14, 0x96, 0xbe, 0xe4, 0xdf, 0x9c, 0xbd,
  0x59, 0x90, 0x71, 0x3c, 0xef, 0x67, 0xb0, 0x3e, 0xcf, 0xbc, 0x32, 0x3e,
  0xf3, 0xd7, 0x02, 0x3f, 0x59, 0xd2, 0x42, 0x3d, 0xc9, 0x0e, 0x8d, 0xbd,
  0xca, 0x07, 0x9c, 0x3d, 0xb1, 0x38, 0xeb, 0x3e, 0x60, 0x29, 0xb0, 0x3e,
  0x55, 0x27, 0x60, 0xbe, 0xe4, 0x60, 0xa4, 0x3e, 0xe2, 0xfc, 0xff, 0xff,
  0x04, 0x00, 0x00, 0x00, 0x00, 0x02, 0x00, 0x00, 0x51, 0xde, 0x82, 0xbe,
  0xef, 0x3c, 0xce, 0x3e, 0x76, 0xd4, 0x74, 0xbe, 0x61, 0xe0, 0x05, 0x3f,
  0x32, 0xd6, 0x9a, 0xbe, 0x88, 0x9d, 0x4a, 0xbd, 0x8f, 0x63, 0x02, 0xbe,
  0x0e, 0xd6, 0x99, 0x3b, 0x6e, 0x35, 0x86, 0x3e, 0xf5, 0x89, 0xae, 0xbd,
  0xaa, 0xf0, 0xdb, 0x3d, 0xba, 0x6d, 0xbc, 0x3e, 0x50, 0xcf, 0x89, 0xbe,
  0x88, 0x55, 0x3c, 0xbb, 0xff, 0x8c, 0xf4, 0xbd, 0x64, 0x31, 0x1c, 0x3f,
  0x81, 0x75, 0xbc, 0xbe, 0x49, 0x62, 0xc7, 0xbe, 0x49, 0x5b, 0x9c, 0xbd,
  0x57, 0x17, 0xed, 0x3d, 0x3e, 0x8c, 0x8f, 0xbe, 0xe0, 0x0d, 0x92, 0xbd,
  0x33, 0x7d, 0x8f, 0x3e, 0xf8, 0x8f, 0x84, 0xbe, 0xca, 0xea, 0xf8, 0x3c,
  0x75, 0x5f, 0xed, 0x3e, 0x22, 0xd6, 0x15, 0xbe, 0xbf, 0x01, 0x6c, 0x3e,
  0xbb, 0xf0, 0xe7, 0x3d, 0x14, 0xa6, 0xa7, 0x3d, 0xca, 0xbe, 0x1f, 0xbf,
  0x99, 0x15, 0xc1, 0x3e, 0x60, 0x67, 0xf4, 0x3d, 0x60, 0x94, 0x85, 0x3e,
  0xab, 0xa9, 0xa7, 0xbe, 0xe9, 0xc8, 0x0f, 0xbe, 0x00, 0x1a, 0xbf, 0x3d,
  0x9f, 0x01, 0x4d, 0xbe, 0x24, 0x97, 0x73, 0x3e, 0x2e, 0x75, 0xa8, 0xbe,
  0x2b, 0x32, 0xd0, 0xbe, 0x26, 0xfd, 0xd5, 0x3e, 0x0a, 0x41, 0x1d, 0x3f,
  0xa1, 0xfb, 0x3e, 0xbe, 0xdd, 0xbc, 0x0b, 0x3e, 0x26, 0xf4, 0x5c, 0xbe,
  0x66, 0x65, 0x2b, 0xbe, 0x7c, 0xf6, 0x97, 0x3d, 0xf4, 0x0c, 0x53, 0x3e,
  0x20, 0x15, 0xf7, 0x3d, 0x00, 0x4a, 0xec, 0x3e, 0x5f, 0x31, 0x04, 0x3e,
  0xc0, 0x1b, 0x7b, 0xbe, 0xa2, 0xd0, 0x6b, 0x3e, 0x6e, 0xd1, 0xfa, 0xbd,
  0xe6, 0x62, 0x36, 0x3e, 0x3b, 0x33, 0x99, 0x3e, 0x20, 0xce, 0x45, 0xbe,
  0xbd, 0xfb, 0xa8, 0x3e, 0xcf, 0xa1, 0x73, 0x3e, 0x71, 0xf8, 0x87, 0x3e,
  0x50, 0x4a, 0xbb, 0xbe, 0x23, 0xe9, 0xf6, 0x3e, 0xa7, 0x55, 0x3b, 0x3e,
  0xff, 0xe7, 0x6d, 0x3d, 0x6e, 0x77, 0x01, 0x3f, 0xbf, 0xb3, 0xad, 0x3d,
  0xf2, 0x9f, 0xb5, 0x3e, 0x36, 0x70, 0xe6, 0xbd, 0xa8, 0x7a, 0x04, 0x3f,
  0xa5, 0x00, 0xa3, 0xbe, 0x89, 0xea, 0xe7, 0x3e, 0x47, 0x53, 0x4f, 0xbe,
  0x11, 0x87, 0xcb, 0xbb, 0x29, 0x5f, 0xc3, 0x3d, 0x6e, 0x92, 0xf8, 0x3e,
  0xc8, 0x53, 0x2d, 0xbc, 0xa6, 0x3f, 0xf9, 0x3e, 0xda, 0xd0, 0x55, 0x3e,
  0x7a, 0xe4, 0x8e, 0xbd, 0x94, 0xdc, 0xa3, 0x3d, 0x27, 0xa1, 0xa9, 0x3e,
  0xc1, 0xec, 0xca, 0xbe, 0xcc, 0x7d, 0x65, 0x3e, 0x6f, 0x5b, 0x01, 0xbf,
  0x16, 0x24, 0x98, 0xbe, 0x30, 0x84, 0xf5, 0x3e, 0x72, 0x8e, 0x08, 0x3f,
  0x0b, 0x95, 0xaa, 0xbe, 0xba, 0x13, 0x30, 0x3e, 0xbe, 0x74, 0xb4, 0x3d,
  0x02, 0xce, 0x38, 0x3d, 0x61, 0x38, 0xa8, 0xbe, 0xd0, 0x26, 0x11, 0x3e,
  0xab, 0x06, 0x10, 0x3f, 0x42, 0xcb, 0x3e, 0x3e, 0xe0, 0x55, 0x9c, 0x3e,
  0x55, 0x25, 0xe6, 0x3e, 0x36, 0x2b, 0x38, 0xbe, 0xb0, 0x7d, 0x8d, 0xbc,
  0x6c, 0xef, 0xbb, 0xbe, 0x0c, 0x4a, 0x29, 0x3f, 0x53, 0xb9, 0xde, 0x3e,
  0x9b, 0x7c, 0x15, 0xbd, 0x28, 0x66, 0x59, 0xbb, 0x98, 0x3c, 0x1c, 0x3e,
  0x9a, 0x7f, 0x94, 0xbd, 0xd6, 0xa4, 0x4b, 0xbd, 0xf2, 0x5d, 0xe8, 0x3e,
  0x59, 0x81, 0x88, 0xbe, 0x5e, 0x6f, 0x19, 0x3e, 0x5b, 0x1b, 0x17, 0xbe,
  0x4e, 0x65, 0x10, 0x3f, 0x86, 0x0a, 0x0a, 0x3f, 0xd1, 0x30, 0x5f, 0xbe,
  0xa4, 0x55, 0x67, 0xbe, 0xd5, 0xc9, 0x13, 0x3f, 0x32, 0xb3, 0x38, 0x3e,
  0xfb, 0x61, 0xe2, 0x3e, 0x61, 0x8f, 0xc0, 0x3e, 0x54, 0x15, 0x03, 0xbd,
  0x94, 0x58, 0x94, 0x3e, 0x93, 0xe7, 0xb9, 0x3d, 0x97, 0x4f, 0x4d, 0xbe,
  0x66, 0x3e, 0x0c, 0x3e, 0xd4, 0xc5, 0xac, 0xbe, 0xaa, 0x58, 0x89, 0x3e,
  0x97, 0x58, 0x8b, 0xbe, 0xee, 0xfe, 0xff, 0xff, 0x04, 0x00, 0x00, 0x00,
  0xc0, 0x00, 0x00, 0x00, 0xe6, 0x14, 0x14, 0x3e, 0x9b, 0x0e, 0x77, 0xbe,
  0x89, 0x65, 0x9b, 0x3d, 0x07, 0xdb, 0x35, 0xbf, 0xd4, 0xbc, 0x4e, 0x3e,
  0xb6, 0xc2, 0x0a, 0xbe, 0x63, 0x19, 0xfd, 0xbd, 0x9b, 0x4f, 0x00, 0x3e,
  0xb5, 0x8b, 0x34, 0xbf, 0x79, 0x5c, 0x0a, 0x3f, 0x78, 0x1b, 0x90, 0x3e,
  0x8f, 0xcc, 0x0d, 0x3f, 0x0f, 0x9e, 0xa9, 0x3e, 0xac, 0x56, 0x0d, 0xbf,
  0xf4, 0x3c, 0xb7, 0xbe, 0x22, 0x51, 0xef, 0x3d, 0x5f, 0x94, 0xfb, 0xbc,
  0x22, 0x8b, 0xe5, 0x3e, 0xc7, 0xe2, 0x00, 0xbe, 0xdd, 0x20, 0x01, 0xbf,
  0x08, 0x87, 0xe4, 0xbe, 0x0f, 0x14, 0x00, 0x3f, 0xe1, 0x13, 0x13, 0xbf,
  0xc5, 0x60, 0xf7, 0x3e, 0xb7, 0x21, 0xed, 0xbd, 0x3e, 0x79, 0x24, 0xbf,
  0x42, 0xce, 0x8f, 0x3e, 0x37, 0x0b, 0x82, 0x3e, 0x8d, 0xc1, 0x06, 0xbf,
  0xbe, 0xe9, 0x70, 0x3d, 0xbc, 0x3c, 0x83, 0x3e, 0xb0, 0x9f, 0xd4, 0x3e,
  0x38, 0x63, 0xe6, 0xbe, 0x41, 0x92, 0x16, 0xbf, 0x34, 0x62, 0x93, 0x3e,
  0xe2, 0x98, 0xa5, 0xbe, 0x85, 0xe9, 0x1c, 0x3e, 0x2a, 0xa8, 0xe0, 0x3b,
  0x2b, 0x94, 0x11, 0xbf, 0xbd, 0xa3, 0xd4, 0xbe, 0x67, 0xab, 0x01, 0xbe,
  0x2e, 0x03, 0x00, 0x3e, 0x5e, 0x3c, 0xa2, 0xbc, 0x73, 0x76, 0xf3, 0xbe,
  0x1b, 0x05, 0x0b, 0x3f, 0xeb, 0x0c, 0x63, 0xbc, 0x7e, 0x5d, 0x20, 0x3f,
  0x85, 0x36, 0xc5, 0x3e, 0xba, 0xff, 0xff, 0xff, 0x04, 0x00, 0x00, 0x00,
  0x0c, 0x00, 0x00, 0x00, 0x0e, 0xbd, 0xdb, 0xbd, 0xc1, 0x93, 0xc8, 0x3c,
  0x86, 0xff, 0x3b, 0xbd, 0xd2, 0xff, 0xff, 0xff, 0x04, 0x00, 0x00, 0x00,
  0x20, 0x00, 0x00, 0x00, 0x8b, 0x99, 0x5d, 0xbc, 0xbb, 0xad, 0x6e, 0x3d,
  0x8b, 0x60, 0x13, 0x3d, 0x02, 0x43, 0x29, 0x3c, 0xca, 0xf8, 0x57, 0xbd,
  0xdf, 0x92, 0x11, 0x3e, 0xe9, 0xab, 0x85, 0x3e, 0x27, 0x86, 0x0b, 0x3e,
  0x00, 0x00, 0x06, 0x00, 0x08, 0x00, 0x04, 0x00, 0x06, 0x00, 0x00, 0x00,
  0x04, 0x00, 0x00, 0x00, 0x40, 0x00, 0x00, 0x00, 0x70, 0xf2, 0x69, 0x3c,
  0x6a, 0x52, 0xec, 0x3d, 0x66, 0x78, 0x5f, 0x3c, 0x38, 0xc6, 0x65, 0x3d,
  0x26, 0x63, 0x88, 0xbd, 0x47, 0x42, 0x6f, 0x3d, 0xf0, 0x6a, 0xd3, 0x3d,
  0x6d, 0x91, 0x50, 0x3d, 0x83, 0xea, 0x2f, 0x3e, 0x4e, 0x62, 0x98, 0xbd,
  0xc0, 0x73, 0x73, 0xbd, 0x96, 0x0d, 0x8b, 0x3d, 0xa5, 0x21, 0xc2, 0x3c,
  0xb1, 0xf4, 0x1f, 0x3d, 0x91, 0x67, 0xb1, 0x3d, 0x8b, 0xdd, 0x3e, 0x3d,
  0x68, 0xf8, 0xff, 0xff, 0x6c, 0xf8, 0xff, 0xff, 0x0f, 0x00, 0x00, 0x00,
  0x4d, 0x4c, 0x49, 0x52, 0x20, 0x43, 0x6f, 0x6e, 0x76, 0x65, 0x72, 0x74,
  0x65, 0x64, 0x2e, 0x00, 0x01, 0x00, 0x00, 0x00, 0x14, 0x00, 0x00, 0x00,
  0x00, 0x00, 0x0e, 0x00, 0x18, 0x00, 0x14, 0x00, 0x10, 0x00, 0x0c, 0x00,
  0x08, 0x00, 0x04, 0x00, 0x0e, 0x00, 0x00, 0x00, 0x14, 0x00, 0x00, 0x00,
  0x1c, 0x00, 0x00, 0x00, 0x20, 0x01, 0x00, 0x00, 0x24, 0x01, 0x00, 0x00,
  0x28, 0x01, 0x00, 0x00, 0x04, 0x00, 0x00, 0x00, 0x6d, 0x61, 0x69, 0x6e,
  0x00, 0x00, 0x00, 0x00, 0x04, 0x00, 0x00, 0x00, 0xc8, 0x00, 0x00, 0x00,
  0x80, 0x00, 0x00, 0x00, 0x38, 0x00, 0x00, 0x00, 0x04, 0x00, 0x00, 0x00,
  0x9a, 0xff, 0xff, 0xff, 0x10, 0x00, 0x00, 0x00, 0x00, 0x00, 0x00, 0x08,
  0x0c, 0x00, 0x00, 0x00, 0x10, 0x00, 0x00, 0x00, 0xe8, 0xf8, 0xff, 0xff,
  0x01, 0x00, 0x00, 0x00, 0x0c, 0x00, 0x00, 0x00, 0x03, 0x00, 0x00, 0x00,
  0x0b, 0x00, 0x00, 0x00, 0x04, 0x00, 0x00, 0x00, 0x03, 0x00, 0x00, 0x00,
  0xca, 0xff, 0xff, 0xff, 0x10, 0x00, 0x00, 0x00, 0x00, 0x00, 0x00, 0x08,
  0x10, 0x00, 0x00, 0x00, 0x14, 0x00, 0x00, 0x00, 0x76, 0xff, 0xff, 0xff,
  0x00, 0x00, 0x00, 0x01, 0x01, 0x00, 0x00, 0x00, 0x0b, 0x00, 0x00, 0x00,
  0x03, 0x00, 0x00, 0x00, 0x0a, 0x00, 0x00, 0x00, 0x05, 0x00, 0x00, 0x00,
  0x01, 0x00, 0x00, 0x00, 0x00, 0x00, 0x0e, 0x00, 0x14, 0x00, 0x00, 0x00,
  0x10, 0x00, 0x0c, 0x00, 0x0b, 0x00, 0x04, 0x00, 0x0e, 0x00, 0x00, 0x00,
  0x10, 0x00, 0x00, 0x00, 0x00, 0x00, 0x00, 0x08, 0x10, 0x00, 0x00, 0x00,
  0x14, 0x00, 0x00, 0x00, 0xba, 0xff, 0xff, 0xff, 0x00, 0x00, 0x00, 0x01,
  0x01, 0x00, 0x00, 0x00, 0x0a, 0x00, 0x00, 0x00, 0x03, 0x00, 0x00, 0x00,
  0x09, 0x00, 0x00, 0x00, 0x06, 0x00, 0x00, 0x00, 0x02, 0x00, 0x00, 0x00,
  0x00, 0x00, 0x0e, 0x00, 0x16, 0x00, 0x00, 0x00, 0x10, 0x00, 0x0c, 0x00,
  0x0b, 0x00, 0x04, 0x00, 0x0e, 0x00, 0x00, 0x00, 0x18, 0x00, 0x00, 0x00,
  0x00, 0x00, 0x00, 0x08, 0x18, 0x00, 0x00, 0x00, 0x1c, 0x00, 0x00, 0x00,
  0x00, 0x00, 0x06, 0x00, 0x08, 0x00, 0x07, 0x00, 0x06, 0x00, 0x00, 0x00,
  0x00, 0x00, 0x00, 0x01, 0x01, 0x00, 0x00, 0x00, 0x09, 0x00, 0x00, 0x00,
  0x03, 0x00, 0x00, 0x00, 0x00, 0x00, 0x00, 0x00, 0x07, 0x00, 0x00, 0x00,
  0x08, 0x00, 0x00, 0x00, 0x01, 0x00, 0x00, 0x00, 0x0c, 0x00, 0x00, 0x00,
  0x01, 0x00, 0x00, 0x00, 0x00, 0x00, 0x00, 0x00, 0x0d, 0x00, 0x00, 0x00,
  0xfc, 0x05, 0x00, 0x00, 0x64, 0x05, 0x00, 0x00, 0xd0, 0x04, 0x00, 0x00,
  0x7c, 0x04, 0x00, 0x00, 0x24, 0x04, 0x00, 0x00, 0xc8, 0x03, 0x00, 0x00,
  0x70, 0x03, 0x00, 0x00, 0x14, 0x03, 0x00, 0x00, 0x94, 0x02, 0x00, 0x00,
  0xd4, 0x01, 0x00, 0x00, 0x20, 0x01, 0x00, 0x00, 0x60, 0x00, 0x00, 0x00,
  0x04, 0x00, 0x00, 0x00, 0x4e, 0xfa, 0xff, 0xff, 0x00, 0x00, 0x00, 0x01,
  0x14, 0x00, 0x00, 0x00, 0x1c, 0x00, 0x00, 0x00, 0x1c, 0x00, 0x00, 0x00,
  0x0d, 0x00, 0x00, 0x00, 0x34, 0x00, 0x00, 0x00, 0x02, 0x00, 0x00, 0x00,
  0xff, 0xff, 0xff, 0xff, 0x03, 0x00, 0x00, 0x00, 0x38, 0xfa, 0xff, 0xff,
  0x1b, 0x00, 0x00, 0x00, 0x53, 0x74, 0x61, 0x74, 0x65, 0x66, 0x75, 0x6c,
  0x50, 0x61, 0x72, 0x74, 0x69, 0x74, 0x69, 0x6f, 0x6e, 0x65, 0x64, 0x43,
  0x61, 0x6c, 0x6c, 0x5f, 0x31, 0x3a, 0x30, 0x00, 0x02, 0x00, 0x00, 0x00,
  0x01, 0x00, 0x00, 0x00, 0x03, 0x00, 0x00, 0x00, 0xa6, 0xfa, 0xff, 0xff,
  0x00, 0x00, 0x00, 0x01, 0x14, 0x00, 0x00, 0x00, 0x1c, 0x00, 0x00, 0x00,
  0x1c, 0x00, 0x00, 0x00, 0x0c, 0x00, 0x00, 0x00, 0x98, 0x00, 0x00, 0x00,
  0x02, 0x00, 0x00, 0x00, 0xff, 0xff, 0xff, 0xff, 0x10, 0x00, 0x00, 0x00,
  0x90, 0xfa, 0xff, 0xff, 0x7c, 0x00, 0x00, 0x00, 0x53, 0x65, 0x6e, 0x73,
  0x65, 0x77, 0x61, 0x72, 0x65, 0x41, 0x75, 0x74, 0x6f, 0x65, 0x6e, 0x63,
  0x6f, 0x64, 0x65, 0x72, 0x5f, 0x31, 0x2f, 0x64, 0x65, 0x63, 0x6f, 0x64,
  0x65, 0x72, 0x5f, 0x31, 0x5f, 0x31, 0x2f, 0x4d, 0x61, 0x74, 0x4d, 0x75,
  0x6c, 0x3b, 0x53, 0x65, 0x6e, 0x73, 0x65, 0x77, 0x61, 0x72, 0x65, 0x41,
  0x75, 0x74, 0x6f, 0x65, 0x6e, 0x63, 0x6f, 0x64, 0x65, 0x72, 0x5f, 0x31,
  0x2f, 0x64, 0x65, 0x63, 0x6f, 0x64, 0x65, 0x72, 0x5f, 0x31, 0x5f, 0x31,
  0x2f, 0x52, 0x65, 0x6c, 0x75, 0x3b, 0x53, 0x65, 0x6e, 0x73, 0x65, 0x77,
  0x61, 0x72, 0x65, 0x41, 0x75, 0x74, 0x6f, 0x65, 0x6e, 0x63, 0x6f, 0x64,
  0x65, 0x72, 0x5f, 0x31, 0x2f, 0x64, 0x65, 0x63, 0x6f, 0x64, 0x65, 0x72,
  0x5f, 0x31, 0x5f, 0x31, 0x2f, 0x42, 0x69, 0x61, 0x73, 0x41, 0x64, 0x64,
  0x00, 0x00, 0x00, 0x00, 0x02, 0x00, 0x00, 0x00, 0x01, 0x00, 0x00, 0x00,
  0x10, 0x00, 0x00, 0x00, 0x62, 0xfb, 0xff, 0xff, 0x00, 0x00, 0x00, 0x01,
  0x14, 0x00, 0x00, 0x00, 0x1c, 0x00, 0x00, 0x00, 0x1c, 0x00, 0x00, 0x00,
  0x0b, 0x00, 0x00, 0x00, 0x8c, 0x00, 0x00, 0x00, 0x02, 0x00, 0x00, 0x00,
  0xff, 0xff, 0xff, 0xff, 0x08, 0x00, 0x00, 0x00, 0x4c, 0xfb, 0xff, 0xff,
  0x73, 0x00, 0x00, 0x00, 0x53, 0x65, 0x6e, 0x73, 0x65, 0x77, 0x61, 0x72,
  0x65, 0x41, 0x75, 0x74, 0x6f, 0x65, 0x6e, 0x63, 0x6f, 0x64, 0x65, 0x72,
  0x5f, 0x31, 0x2f, 0x6c, 0x61, 0x74, 0x65, 0x6e, 0x74, 0x5f, 0x31, 0x2f,
  0x4d, 0x61, 0x74, 0x4d, 0x75, 0x6c, 0x3b, 0x53, 0x65, 0x6e, 0x73, 0x65,
  0x77, 0x61, 0x72, 0x65, 0x41, 0x75, 0x74, 0x6f, 0x65, 0x6e, 0x63, 0x6f,
  0x64, 0x65, 0x72, 0x5f, 0x31, 0x2f, 0x6c, 0x61, 0x74, 0x65, 0x6e, 0x74,
  0x5f, 0x31, 0x2f, 0x52, 0x65, 0x6c, 0x75, 0x3b, 0x53, 0x65, 0x6e, 0x73,
  0x65, 0x77, 0x61, 0x72, 0x65, 0x41, 0x75, 0x74, 0x6f, 0x65, 0x6e, 0x63,
  0x6f, 0x64, 0x65, 0x72, 0x5f, 0x31, 0x2f, 0x6c, 0x61, 0x74, 0x65, 0x6e,
  0x74, 0x5f, 0x31, 0x2f, 0x42, 0x69, 0x61, 0x73, 0x41, 0x64, 0x64, 0x00,
  0x02, 0x00, 0x00, 0x00, 0x01, 0x00, 0x00, 0x00, 0x08, 0x00, 0x00, 0x00,
  0x12, 0xfc, 0xff, 0xff, 0x00, 0x00, 0x00, 0x01, 0x14, 0x00, 0x00, 0x00,
  0x1c, 0x00, 0x00, 0x00, 0x1c, 0x00, 0x00, 0x00, 0x0a, 0x00, 0x00, 0x00,
  0x98, 0x00, 0x00, 0x00, 0x02, 0x00, 0x00, 0x00, 0xff, 0xff, 0xff, 0xff,
  0x10, 0x00, 0x00, 0x00, 0xfc, 0xfb, 0xff, 0xff, 0x7c, 0x00, 0x00, 0x00,
  0x53, 0x65, 0x6e, 0x73, 0x65, 0x77, 0x61, 0x72, 0x65, 0x41, 0x75, 0x74,
  0x6f, 0x65, 0x6e, 0x63, 0x6f, 0x64, 0x65, 0x72, 0x5f, 0x31, 0x2f, 0x65,
  0x6e, 0x63, 0x6f, 0x64, 0x65, 0x72, 0x5f, 0x31, 0x5f, 0x31, 0x2f, 0x4d,
  0x61, 0x74, 0x4d, 0x75, 0x6c, 0x3b, 0x53, 0x65, 0x6e, 0x73, 0x65, 0x77,
  0x61, 0x72, 0x65, 0x41, 0x75, 0x74, 0x6f, 0x65, 0x6e, 0x63, 0x6f, 0x64,
  0x65, 0x72, 0x5f, 0x31, 0x2f, 0x65, 0x6e, 0x63, 0x6f, 0x64, 0x65, 0x72,
  0x5f, 0x31, 0x5f, 0x31, 0x2f, 0x52, 0x65, 0x6c, 0x75, 0x3b, 0x53, 0x65,
  0x6e, 0x73, 0x65, 0x77, 0x61, 0x72, 0x65, 0x41, 0x75, 0x74, 0x6f, 0x65,
  0x6e, 0x63, 0x6f, 0x64, 0x65, 0x72, 0x5f, 0x31, 0x2f, 0x65, 0x6e, 0x63,
  0x6f, 0x64, 0x65, 0x72, 0x5f, 0x31, 0x5f, 0x31, 0x2f, 0x42, 0x69, 0x61,
  0x73, 0x41, 0x64, 0x64, 0x00, 0x00, 0x00, 0x00, 0x02, 0x00, 0x00, 0x00,
  0x01, 0x00, 0x00, 0x00, 0x10, 0x00, 0x00, 0x00, 0x62, 0xfd, 0xff, 0xff,
  0x00, 0x00, 0x00, 0x01, 0x10, 0x00, 0x00, 0x00, 0x10, 0x00, 0x00, 0x00,
  0x09, 0x00, 0x00, 0x00, 0x60, 0x00, 0x00, 0x00, 0xa8, 0xfc, 0xff, 0xff,
  0x52, 0x00, 0x00, 0x00, 0x53, 0x65, 0x6e, 0x73, 0x65, 0x77, 0x61, 0x72,
  0x65, 0x41, 0x75, 0x74, 0x6f, 0x65, 0x6e, 0x63, 0x6f, 0x64, 0x65, 0x72,
  0x5f, 0x31, 0x2f, 0x65, 0x6e, 0x63, 0x6f, 0x64, 0x65, 0x72, 0x5f, 0x31,
  0x5f, 0x31, 0x2f, 0x52, 0x65, 0x6c, 0x75, 0x3b, 0x53, 0x65, 0x6e, 0x73,
  0x65, 0x77, 0x61, 0x72, 0x65, 0x41, 0x75, 0x74, 0x6f, 0x65, 0x6e, 0x63,
  0x6f, 0x64, 0x65, 0x72, 0x5f, 0x31, 0x2f, 0x65, 0x6e, 0x63, 0x6f, 0x64,
  0x65, 0x72, 0x5f, 0x31, 0x5f, 0x31, 0x2f, 0x42, 0x69, 0x61, 0x73, 0x41,
  0x64, 0x64, 0x00, 0x00, 0x01, 0x00, 0x00, 0x00, 0x10, 0x00, 0x00, 0x00,
  0xde, 0xfd, 0xff, 0xff, 0x00, 0x00, 0x00, 0x01, 0x10, 0x00, 0x00, 0x00,
  0x10, 0x00, 0x00, 0x00, 0x08, 0x00, 0x00, 0x00, 0x38, 0x00, 0x00, 0x00,
  0x24, 0xfd, 0xff, 0xff, 0x29, 0x00, 0x00, 0x00, 0x53, 0x65, 0x6e, 0x73,
  0x65, 0x77, 0x61, 0x72, 0x65, 0x41, 0x75, 0x74, 0x6f, 0x65, 0x6e, 0x63,
  0x6f, 0x64, 0x65, 0x72, 0x5f, 0x31, 0x2f, 0x65, 0x6e, 0x63, 0x6f, 0x64,
  0x65, 0x72, 0x5f, 0x31, 0x5f, 0x31, 0x2f, 0x4d, 0x61, 0x74, 0x4d, 0x75,
  0x6c, 0x00, 0x00, 0x00, 0x02, 0x00, 0x00, 0x00, 0x10, 0x00, 0x00, 0x00,
  0x03, 0x00, 0x00, 0x00, 0x36, 0xfe, 0xff, 0xff, 0x00, 0x00, 0x00, 0x01,
  0x10, 0x00, 0x00, 0x00, 0x10, 0x00, 0x00, 0x00, 0x07, 0x00, 0x00, 0x00,
  0x34, 0x00, 0x00, 0x00, 0x7c, 0xfd, 0xff, 0xff, 0x26, 0x00, 0x00, 0x00,
  0x53, 0x65, 0x6e, 0x73, 0x65, 0x77, 0x61, 0x72, 0x65, 0x41, 0x75, 0x74,
  0x6f, 0x65, 0x6e, 0x63, 0x6f, 0x64, 0x65, 0x72, 0x5f, 0x31, 0x2f, 0x6c,
  0x61, 0x74, 0x65, 0x6e, 0x74, 0x5f, 0x31, 0x2f, 0x4d, 0x61, 0x74, 0x4d,
  0x75, 0x6c, 0x00, 0x00, 0x02, 0x00, 0x00, 0x00, 0x08, 0x00, 0x00, 0x00,
  0x10, 0x00, 0x00, 0x00, 0x8a, 0xfe, 0xff, 0xff, 0x00, 0x00, 0x00, 0x01,
  0x10, 0x00, 0x00, 0x00, 0x10, 0x00, 0x00, 0x00, 0x06, 0x00, 0x00, 0x00,
  0x38, 0x00, 0x00, 0x00, 0xd0, 0xfd, 0xff, 0xff, 0x29, 0x00, 0x00, 0x00,
  0x53, 0x65, 0x6e, 0x73, 0x65, 0x77, 0x61, 0x72, 0x65, 0x41, 0x75, 0x74,
  0x6f, 0x65, 0x6e, 0x63, 0x6f, 0x64, 0x65, 0x72, 0x5f, 0x31, 0x2f, 0x64,
  0x65, 0x63, 0x6f, 0x64, 0x65, 0x72, 0x5f, 0x31, 0x5f, 0x31, 0x2f, 0x4d,
  0x61, 0x74, 0x4d, 0x75, 0x6c, 0x00, 0x00, 0x00, 0x02, 0x00, 0x00, 0x00,
  0x10, 0x00, 0x00, 0x00, 0x08, 0x00, 0x00, 0x00, 0xe2, 0xfe, 0xff, 0xff,
  0x00, 0x00, 0x00, 0x01, 0x10, 0x00, 0x00, 0x00, 0x10, 0x00, 0x00, 0x00,
  0x05, 0x00, 0x00, 0x00, 0x34, 0x00, 0x00, 0x00, 0x28, 0xfe, 0xff, 0xff,
  0x26, 0x00, 0x00, 0x00, 0x53, 0x65, 0x6e, 0x73, 0x65, 0x77, 0x61, 0x72,
  0x65, 0x41, 0x75, 0x74, 0x6f, 0x65, 0x6e, 0x63, 0x6f, 0x64, 0x65, 0x72,
  0x5f, 0x31, 0x2f, 0x6f, 0x75, 0x74, 0x70, 0x75, 0x74, 0x5f, 0x31, 0x2f,
  0x4d, 0x61, 0x74, 0x4d, 0x75, 0x6c, 0x00, 0x00, 0x02, 0x00, 0x00, 0x00,
  0x03, 0x00, 0x00, 0x00, 0x10, 0x00, 0x00, 0x00, 0x36, 0xff, 0xff, 0xff,
  0x00, 0x00, 0x00, 0x01, 0x10, 0x00, 0x00, 0x00, 0x10, 0x00, 0x00, 0x00,
  0x04, 0x00, 0x00, 0x00, 0x34, 0x00, 0x00, 0x00, 0x7c, 0xfe, 0xff, 0xff,
  0x27, 0x00, 0x00, 0x00, 0x53, 0x65, 0x6e, 0x73, 0x65, 0x77, 0x61, 0x72,
  0x65, 0x41, 0x75, 0x74, 0x6f, 0x65, 0x6e, 0x63, 0x6f, 0x64, 0x65, 0x72,
  0x5f, 0x31, 0x2f, 0x6f, 0x75, 0x74, 0x70, 0x75, 0x74, 0x5f, 0x31, 0x2f,
  0x42, 0x69, 0x61, 0x73, 0x41, 0x64, 0x64, 0x00, 0x01, 0x00, 0x00, 0x00,
  0x03, 0x00, 0x00, 0x00, 0x86, 0xff, 0xff, 0xff, 0x00, 0x00, 0x00, 0x01,
  0x10, 0x00, 0x00, 0x00, 0x10, 0x00, 0x00, 0x00, 0x03, 0x00, 0x00, 0x00,
  0x5c, 0x00, 0x00, 0x00, 0xcc, 0xfe, 0xff, 0xff, 0x4c, 0x00, 0x00, 0x00,
  0x53, 0x65, 0x6e, 0x73, 0x65, 0x77, 0x61, 0x72, 0x65, 0x41, 0x75, 0x74,
  0x6f, 0x65, 0x6e, 0x63, 0x6f, 0x64, 0x65, 0x72, 0x5f, 0x31, 0x2f, 0x6c,
  0x61, 0x74, 0x65, 0x6e, 0x74, 0x5f, 0x31, 0x2f, 0x52, 0x65, 0x6c, 0x75,
  0x3b, 0x53, 0x65, 0x6e, 0x73, 0x65, 0x77, 0x61, 0x72, 0x65, 0x41, 0x75,
  0x74, 0x6f, 0x65, 0x6e, 0x63, 0x6f, 0x64, 0x65, 0x72, 0x5f, 0x31, 0x2f,
  0x6c, 0x61, 0x74, 0x65, 0x6e, 0x74, 0x5f, 0x31, 0x2f, 0x42, 0x69, 0x61,
  0x73, 0x41, 0x64, 0x64, 0x00, 0x00, 0x00, 0x00, 0x01, 0x00, 0x00, 0x00,
  0x08, 0x00, 0x00, 0x00, 0x00, 0x00, 0x16, 0x00, 0x18, 0x00, 0x14, 0x00,
  0x00, 0x00, 0x10, 0x00, 0x0c, 0x00, 0x08, 0x00, 0x00, 0x00, 0x00, 0x00,
  0x00, 0x00, 0x07, 0x00, 0x16, 0x00, 0x00, 0x00, 0x00, 0x00, 0x00, 0x01,
  0x10, 0x00, 0x00, 0x00, 0x10, 0x00, 0x00, 0x00, 0x02, 0x00, 0x00, 0x00,
  0x60, 0x00, 0x00, 0x00, 0x5c, 0xff, 0xff, 0xff, 0x52, 0x00, 0x00, 0x00,
  0x53, 0x65, 0x6e, 0x73, 0x65, 0x77, 0x61, 0x72, 0x65, 0x41, 0x75, 0x74,
  0x6f, 0x65, 0x6e, 0x63, 0x6f, 0x64, 0x65, 0x72, 0x5f, 0x31, 0x2f, 0x64,
  0x65, 0x63, 0x6f, 0x64, 0x65, 0x72, 0x5f, 0x31, 0x5f, 0x31, 0x2f, 0x52,
  0x65, 0x6c, 0x75, 0x3b, 0x53, 0x65, 0x6e, 0x73, 0x65, 0x77, 0x61, 0x72,
  0x65, 0x41, 0x75, 0x74, 0x6f, 0x65, 0x6e, 0x63, 0x6f, 0x64, 0x65, 0x72,
  0x5f, 0x31, 0x2f, 0x64, 0x65, 0x63, 0x6f, 0x64, 0x65, 0x72, 0x5f, 0x31,
  0x5f, 0x31, 0x2f, 0x42, 0x69, 0x61, 0x73, 0x41, 0x64, 0x64, 0x00, 0x00,
  0x01, 0x00, 0x00, 0x00, 0x10, 0x00, 0x00, 0x00, 0x00, 0x00, 0x16, 0x00,
  0x1c, 0x00, 0x18, 0x00, 0x00, 0x00, 0x14, 0x00, 0x10, 0x00, 0x0c, 0x00,
  0x00, 0x00, 0x00, 0x00, 0x08, 0x00, 0x07, 0x00, 0x16, 0x00, 0x00, 0x00,
  0x00, 0x00, 0x00, 0x01, 0x14, 0x00, 0x00, 0x00, 0x20, 0x00, 0x00, 0x00,
  0x20, 0x00, 0x00, 0x00, 0x01, 0x00, 0x00, 0x00, 0x3c, 0x00, 0x00, 0x00,
  0x02, 0x00, 0x00, 0x00, 0xff, 0xff, 0xff, 0xff, 0x03, 0x00, 0x00, 0x00,
  0x04, 0x00, 0x04, 0x00, 0x04, 0x00, 0x00, 0x00, 0x1e, 0x00, 0x00, 0x00,
  0x73, 0x65, 0x72, 0x76, 0x69, 0x6e, 0x67, 0x5f, 0x64, 0x65, 0x66, 0x61,
  0x75, 0x6c, 0x74, 0x5f, 0x6b, 0x65, 0x72, 0x61, 0x73, 0x5f, 0x74, 0x65,
  0x6e, 0x73, 0x6f, 0x72, 0x3a, 0x30, 0x00, 0x00, 0x02, 0x00, 0x00, 0x00,
  0x01, 0x00, 0x00, 0x00, 0x03, 0x00, 0x00, 0x00, 0x01, 0x00, 0x00, 0x00,
  0x10, 0x00, 0x00, 0x00, 0x0c, 0x00, 0x0c, 0x00, 0x0b, 0x00, 0x00, 0x00,
  0x00, 0x00, 0x04, 0x00, 0x0c, 0x00, 0x00, 0x00, 0x09, 0x00, 0x00, 0x00,
  0x00, 0x00, 0x00, 0x09
};
unsigned int senseware_model_tflite_len = 4216;

#endif /* SENSEWARE_MODEL_DATA_H */
