/* Auto-generated by train_autoencoder.py — do not edit manually. */
#ifndef SENSEWARE_MODEL_DATA_H
#define SENSEWARE_MODEL_DATA_H

unsigned char senseware_model_tflite[] = {
  0x1c, 0x00, 0x00, 0x00, 0x54, 0x46, 0x4c, 0x33, 0x14, 0x00, 0x20, 0x00,
  0x1c, 0x00, 0x18, 0x00, 0x14, 0x00, 0x10, 0x00, 0x0c, 0x00, 0x00, 0x00,
  0x08, 0x00, 0x04, 0x00, 0x14, 0x00, 0x00, 0x00, 0x1c, 0x00, 0x00, 0x00,
  0x98, 0x00, 0x00, 0x00, 0xf0, 0x00, 0x00, 0x00, 0x64, 0x08, 0x00, 0x00,
  0x74, 0x08, 0x00, 0x00, 0x24, 0x10, 0x00, 0x00, 0x03, 0x00, 0x00, 0x00,
  0x01, 0x00, 0x00, 0x00, 0x10, 0x00, 0x00, 0x00, 0x00, 0x00, 0x0a, 0x00,
  0x10, 0x00, 0x0c, 0x00, 0x08, 0x00, 0x04, 0x00, 0x0a, 0x00, 0x00, 0x00,
  0x0c, 0x00, 0x00, 0x00, 0x1c, 0x00, 0x00, 0x00, 0x3c, 0x00, 0x00, 0x00,
  0x0f, 0x00, 0x00, 0x00, 0x73, 0x65, 0x72, 0x76, 0x69, 0x6e, 0x67, 0x5f,
  0x64, 0x65, 0x66, 0x61, 0x75, 0x6c, 0x74, 0x00, 0x01, 0x00, 0x00, 0x00,
  0x04, 0x00, 0x00, 0x00, 0x90, 0xff, 0xff, 0xff, 0x0c, 0x00, 0x00, 0x00,
  0x04, 0x00, 0x00, 0x00, 0x08, 0x00, 0x00, 0x00, 0x6f, 0x75, 0x74, 0x70,
  0x75, 0x74, 0x5f, 0x30, 0x00, 0x00, 0x00, 0x00, 0x01, 0x00, 0x00, 0x00,
  0x04, 0x00, 0x00, 0x00, 0x6a, 0xf8, 0xff, 0xff, 0x04, 0x00, 0x00, 0x00,
  0x0c, 0x00, 0x00, 0x00, 0x6b, 0x65, 0x72, 0x61, 0x73, 0x5f, 0x74, 0x65,
  0x6e, 0x73, 0x6f, 0x72, 0x00, 0x00, 0x00, 0x00, 0x02, 0x00, 0x00, 0x00,
  0x34, 0x00, 0x00, 0x00, 0x04, 0x00, 0x00, 0x00, 0xdc, 0xff, 0xff, 0xff,
  0x0f, 0x00, 0x00, 0x00, 0x04, 0x00, 0x00, 0x00, 0x13, 0x00, 0x00, 0x00,
  0x43, 0x4f, 0x4e, 0x56, 0x45, 0x52, 0x53, 0x49, 0x4f, 0x4e, 0x5f, 0x4d,
  0x45, 0x54, 0x41, 0x44, 0x41, 0x54, 0x41, 0x00, 0x08, 0x00, 0x0c, 0x00,
  0x08, 0x00, 0x04, 0x00, 0x08, 0x00, 0x00, 0x00, 0x0e, 0x00, 0x00, 0x00,
  0x04, 0x00, 0x00, 0x00, 0x13, 0x00, 0x00, 0x00, 0x6d, 0x69, 0x6e, 0x5f,
  0x72, 0x75, 0x6e, 0x74, 0x69, 0x6d, 0x65, 0x5f, 0x76, 0x65, 0x72, 0x73,
  0x69, 0x6f, 0x6e, 0x00, 0x10, 0x00, 0x00, 0x00, 0x70, 0x07, 0x00, 0x00,
  0x68, 0x07, 0x00, 0x00, 0x18, 0x07, 0x00, 0x00, 0xe0, 0x06, 0x00, 0x00,
  0xc4, 0x06, 0x00, 0x00, 0xf4, 0x05, 0x00, 0x00, 0xe4, 0x03, 0x00, 0x00,
  0xd4, 0x01, 0x00, 0x00, 0x04, 0x01, 0x00, 0x00, 0xb4, 0x00, 0x00, 0x00,
  0xac, 0x00, 0x00, 0x00, 0xa4, 0x00, 0x00, 0x00, 0x9c, 0x00, 0x00, 0x00,
  0x94, 0x00, 0x00, 0x00, 0x74, 0x00, 0x00, 0x00, 0x04, 0x00, 0x00, 0x00,
  0x26, 0xf9, 0xff, 0xff, 0x04, 0x00, 0x00, 0x00, 0x60, 0x00, 0x00, 0x00,
  0x10, 0x00, 0x00, 0x00, 0x00, 0x00, 0x00, 0x00, 0x08, 0x00, 0x0e, 0x00,
  0x08, 0x00, 0x04, 0x00, 0x08, 0x00, 0x00, 0x00, 0x10, 0x00, 0x00, 0x00,
  0x24, 0x00, 0x00, 0x00, 0x00, 0x00, 0x06, 0x00, 0x08, 0x00, 0x04, 0x00,
  0x06, 0x00, 0x00, 0x00, 0x04, 0x00, 0x00, 0x00, 0x00, 0x00, 0x00, 0x00,
  0x0c, 0x00, 0x18, 0x00, 0x14, 0x00, 0x10, 0x00, 0x0c, 0x00, 0x04, 0x00,
  0x0c, 0x00, 0x00, 0x00, 0xcd, 0x98, 0xa3, 0x75, 0x1a, 0x14, 0xd0, 0xc4,
  0x02, 0x00, 0x00, 0x00, 0x02, 0x00, 0x00, 0x00, 0x04, 0x00, 0x00, 0x00,
  0x06, 0x00, 0x00, 0x00, 0x32, 0x2e, 0x32, 0x31, 0x2e, 0x30, 0x00, 0x00,
  0x92, 0xf9, 0xff, 0xff, 0x04, 0x00, 0x00, 0x00, 0x10, 0x00, 0x00, 0x00,
  0x31, 0x2e, 0x35, 0x2e, 0x30, 0x00, 0x00, 0x00, 0x00, 0x00, 0x00, 0x00,
  0x00, 0x00, 0x00, 0x00, 0xc4, 0xf1, 0xff, 0xff, 0xc8, 0xf1, 0xff, 0xff,
  0xcc, 0xf1, 0xff, 0xff, 0xd0, 0xf1, 0xff, 0xff, 0xbe, 0xf9, 0xff, 0xff,
  0x04, 0x00, 0x00, 0x00, 0x40, 0x00, 0x00, 0x00, 0x45, 0xcb, 0x72, 0x3d,
  0x2c, 0x09, 0x85, 0xbd, 0x30, 0x12, 0x36, 0x3e, 0xae, 0x74, 0x0b, 0x3c,
  0xc6, 0x9f, 0x5e, 0x3d, 0xb3, 0x70, 0xa6, 0xbd, 0x67, 0x85, 0xd0, 0x3d,
  0x84, 0xcb, 0xd7, 0x3d, 0xd9, 0xf1, 0xca, 0xbd, 0xc5, 0x7b, 0x8f, 0x3d,
  0x83, 0xd4, 0x27, 0xbd, 0xf0, 0xd4, 0x93, 0x3a, 0x93, 0x65, 0x2c, 0x3e,
  0x86, 0x73, 0x3d, 0xbc, 0x16, 0x17, 0x66, 0xbd, 0x69, 0xdf, 0xd5, 0xbd,
  0x0a, 0xfa, 0xff, 0xff, 0x04, 0x00, 0x00, 0x00, 0xc0, 0x00, 0x00, 0x00,
  0xa2, 0xdf, 0x55, 0xbe, 0x17, 0x75, 0x48, 0x3e, 0x76, 0x08, 0x11, 0xbf,
  0x0e, 0xb2, 0x8f, 0xbe, 0x18, 0x66, 0xbe, 0x3e, 0xa4, 0xde, 0xae, 0xbe,
  0xa2, 0x63, 0xd5, 0x3e, 0xd4, 0xd1, 0x0f, 0xbf, 0x2a, 0x61, 0x07, 0x3f,
  0x82, 0x68, 0x91, 0x3e, 0x79, 0x5e, 0x13, 0x3f, 0x6e, 0x16, 0x28, 0x3e,
  0x93, 0xf8, 0x01, 0xbf, 0xc4, 0x7f, 0x43, 0x3e, 0x86, 0x41, 0x23, 0x3e,
  0x0d, 0xac, 0xcf, 0xbe, 0xa3, 0xc5, 0xee, 0x3e, 0x31, 0x3a, 0xf2, 0xbe,
  0x3e, 0x40, 0x15, 0x3f, 0xc0, 0xde, 0x83, 0xbe, 0x2a, 0x39, 0x0a, 0x3f,
  0xc6, 0x40, 0x33, 0xbe, 0xd9, 0xe9, 0x6c, 0xbe, 0x4b, 0x97, 0xff, 0xbe,
  0x03, 0x33, 0x21, 0x3e, 0x73, 0x5b, 0x0d, 0xbe, 0x13, 0x1f, 0x04, 0x3f,
  0x63, 0x21, 0x6e, 0xbe, 0x34, 0xbf, 0x2c, 0xbe, 0x7a, 0xaf, 0xb9, 0xbc,
  0x1a, 0x88, 0x06, 0x3f, 0xc4, 0xea, 0x56, 0xbe, 0x88, 0xf1, 0x33, 0xbe,
  0x43, 0x9f, 0x00, 0x3e, 0x67, 0xc3, 0x0a, 0xbe, 0x3f, 0x9e, 0x95, 0x3e,
  0x99, 0x38, 0x1c, 0x3f, 0x04, 0x6b, 0x03, 0x3e, 0x5c, 0xd6, 0x25, 0xbf,
  0x40, 0x36, 0x7a, 0xbe, 0x14, 0xd7, 0x00, 0xbf, 0x8c, 0x16, 0x12, 0xbe,
  0x5b, 0x74, 0xd8, 0x3e, 0x2d, 0xb7, 0xd3, 0xbd, 0xe6, 0x81, 0xce, 0xbd,
  0x6f, 0xdd, 0xda, 0xbe, 0x8d, 0x21, 0x8d, 0xbd, 0x18, 0xc7, 0xe9, 0x3e,
  0xd6, 0xfa, 0xff, 0xff, 0x04, 0x00, 0x00, 0x00, 0x00, 0x02, 0x00, 0x00,
  0x75, 0xda, 0x1b, 0x3f, 0x6d, 0xaf, 0x8f, 0x3e, 0xcb, 0xb7, 0xe5, 0xbd,
  0xac, 0x1c, 0x9c, 0x3d, 0xf8, 0x3c, 0xb4, 0x3e, 0xa1, 0x55, 0x04, 0x3f,
  0x7c, 0x0e, 0xbd, 0x3e, 0xd4, 0x67, 0x4c, 0x3d, 0x32, 0x40, 0xad, 0xbe,
  0xc4, 0x94, 0xd6, 0x3d, 0x20, 0xaa, 0x3d, 0xbe, 0xe5, 0x66, 0x0a, 0xbe,
  0xc2, 0xf7, 0x6b, 0x3e, 0xd4, 0x7b, 0x26, 0x3f, 0xab, 0xf6, 0x70, 0x3e,
  0xed, 0x65, 0x94, 0xbd, 0xdd, 0x33, 0x9b, 0xbe, 0x82, 0x1c, 0xa7, 0xbe,
  0x3e, 0xa5, 0xf9, 0x3e, 0x37, 0xdc, 0x0d, 0x3d, 0xd2, 0xa8, 0x11, 0x3f,
  0x26, 0xe8, 0xea, 0x3e, 0xd0, 0xbd, 0x71, 0x3e, 0x3f, 0xad, 0x64, 0x3e,
  0x46, 0xe3, 0x87, 0x3e, 0x16, 0xd5, 0xfe, 0x3e, 0xee, 0x31, 0xc0, 0x3c,
  0xf1, 0x6c, 0xf8, 0x3e, 0xae, 0xae, 0xe4, 0x3d, 0x49, 0x05, 0x05, 0x3f,
  0x1d, 0xd5, 0xde, 0xbe, 0xbb, 0x1c, 0xca, 0x3e, 0xba, 0xe5, 0x0d, 0x3e,
  0x3d, 0xd9, 0xa3, 0x3e, 0x6e, 0x4a, 0x19, 0x3f, 0x81, 0xe3, 0x98, 0x3e,
  0x3e, 0x34, 0xd1, 0xbe, 0x93, 0xac, 0x71, 0xbd, 0x30, 0xe6, 0xcd, 0x3e,
  0xb3, 0x15, 0xff, 0xbd, 0x2e, 0xfb, 0x8e, 0xbe, 0x7c, 0x96, 0xd6, 0x3e,
  0x20, 0xa9, 0x2c, 0x3f, 0x32, 0x91, 0xf5, 0x3e, 0x94, 0xbb, 0x0e, 0xbe,
  0xe2, 0x6e, 0x70, 0xbe, 0x05, 0x4a, 0x51, 0x3c, 0x99, 0x3d, 0x3d, 0x3e,
  0x0b, 0xc1, 0x52, 0xbc, 0x24, 0x76, 0xe1, 0x3c, 0x68, 0x10, 0x24, 0x3e,
  0x73, 0xd6, 0xb3, 0xbd, 0xce, 0x27, 0x0c, 0x3d, 0x30, 0x47, 0x80, 0xbd,
  0xd5, 0x33, 0x0f, 0xbe, 0x8b, 0x8b, 0x17, 0x3f, 0x7d, 0x0c, 0x6f, 0x3d,
  0x1f, 0x0d, 0xd3, 0xbc, 0x71, 0xd3, 0xb5, 0x3c, 0xd3, 0x87, 0x74, 0xbd,
  0x98, 0x20, 0x2e, 0x3f, 0xe3, 0x81, 0x17, 0x3f, 0x2e, 0x9c, 0x75, 0xbc,
  0x38, 0x3b, 0xb7, 0xbd, 0xd8, 0xf2, 0xdb, 0xbe, 0x04, 0x49, 0xb4, 0xbe,
  0x58, 0x0a, 0x19, 0xbe, 0x1c, 0x8b, 0x82, 0xbe, 0xe0, 0x05, 0x33, 0xbe,
  0xb0, 0x50, 0xe4, 0x3e, 0x5c, 0xe0, 0xe2, 0xbe, 0x60, 0x09, 0xe8, 0xbe,
  0xb8, 0x5a, 0x90, 0xbe, 0x98, 0xae, 0x5a, 0xbe, 0x9c, 0xf5, 0xbf, 0xbe,
  0xe8, 0x7a, 0xe1, 0x3e, 0xf4, 0xb6, 0xcb, 0xbe, 0xc0, 0x4e, 0x82, 0xbd,
  0x1c, 0xf6, 0xa7, 0x3e, 0x00, 0x68, 0x54, 0x3c, 0xf1, 0x5c, 0xac, 0x3d,
  0x6f, 0x77, 0x8b, 0x3e, 0xca, 0xdf, 0x56, 0xbe, 0x42, 0xc5, 0x26, 0x3f,
  0xd3, 0x19, 0x10, 0x3f, 0x55, 0xc6, 0x38, 0xbd, 0x48, 0x63, 0x29, 0x3c,
  0x5f, 0xea, 0xce, 0x3e, 0xd9, 0xfb, 0x17, 0x3f, 0xe9, 0x33, 0x8c, 0x3e,
  0x23, 0x38, 0x19, 0xbe, 0xd0, 0xe8, 0x2d, 0x3e, 0xa1, 0x0d, 0xfb, 0x3e,
  0x07, 0x7d, 0x91, 0xbe, 0x1f, 0x46, 0x62, 0xbe, 0xea, 0xd0, 0x8d, 0x3c,
  0xef, 0x22, 0xfd, 0xbe, 0xd9, 0x39, 0x20, 0x3e, 0x68, 0x2a, 0xe0, 0x3e,
  0x91, 0x15, 0x16, 0x3f, 0xbc, 0xd1, 0xaf, 0xbd, 0x5e, 0xb0, 0xad, 0x3e,
  0xd8, 0x92, 0x14, 0x3f, 0xed, 0xd6, 0xb8, 0xbc, 0xa2, 0xdd, 0x43, 0x3d,
  0x1c, 0xe0, 0x02, 0xbe, 0x58, 0xdd, 0x5b, 0x3e, 0xd4, 0xa3, 0xc5, 0x3e,
  0x83, 0xcb, 0xb4, 0x3d, 0x8c, 0xa7, 0x9a, 0x3e, 0x04, 0x84, 0x55, 0x3d,
  0x3e, 0x8f, 0x4a, 0x3e, 0xde, 0x29, 0xe6, 0x3e, 0x72, 0x62, 0xdf, 0x3e,
  0x54, 0xab, 0x96, 0x3e, 0x1c, 0x15, 0x23, 0x3e, 0xc6, 0x25, 0x44, 0xbe,
  0x41, 0x4b, 0xe3, 0x3e, 0x2a, 0x3c, 0xff, 0xbd, 0x60, 0xd3, 0x1e, 0x3d,
  0xe1, 0x7d, 0x42, 0x3e, 0x78, 0xfa, 0x83, 0x3c, 0xd9, 0xad, 0x57, 0x3e,
  0x42, 0x5b, 0x0d, 0xbf, 0x42, 0x14, 0x3b, 0xbe, 0x5d, 0xf0, 0x97, 0xbe,
  0xf1, 0xdc, 0x3a, 0x3c, 0xf8, 0xef, 0xca, 0x3e, 0xe2, 0xfc, 0xff, 0xff,
  0x04, 0x00, 0x00, 0x00, 0x00, 0x02, 0x00, 0x00, 0xf2, 0x6a, 0xa2, 0xbd,
  0x4d, 0xaa, 0xd4, 0xbd, 0x53, 0x9a, 0x0f, 0x3f, 0x55, 0xbf, 0x94, 0xbd,
  0x68, 0xb5, 0xa5, 0xbe, 0x03, 0x8d, 0xd4, 0x3e, 0xd0, 0xd4, 0xb2, 0x3e,
  0xb1, 0xe1, 0x6d, 0xbe, 0x57, 0xd3, 0xf5, 0xbe, 0x53, 0x56, 0x63, 0xbe,
  0x19, 0x8d, 0x01, 0x3f, 0xf3, 0xf1, 0xd4, 0x3e, 0x00, 0x17, 0x2a, 0xbd,
  0x15, 0x38, 0x20, 0x3f, 0x77, 0x0d, 0xa1, 0x3e, 0x90, 0x7e, 0x43, 0x3e,
  0xcd, 0x1e, 0x9a, 0x3e, 0x61, 0xe9, 0xdd, 0x3e, 0xac, 0xe9, 0x42, 0xbe,
  0xd0, 0x34, 0x32, 0x3d, 0x68, 0xfc, 0xde, 0x3e, 0x75, 0x36, 0x09, 0x3f,
  0xe9, 0x1d, 0x5b, 0xbe, 0x2b, 0xbf, 0x0b, 0x3f, 0xd0, 0x3d, 0x9e, 0xbd,
  0x28, 0x61, 0x92, 0xbe, 0xc3, 0x69, 0x40, 0x3d, 0xb5, 0x9c, 0xc9, 0xbe,
  0x20, 0x39, 0x00, 0x3e, 0x09, 0x02, 0xae, 0x3e, 0x22, 0xb5, 0x03, 0xbf,
  0x6f, 0xed, 0x04, 0xbe, 0x84, 0x2b, 0xae, 0x3e, 0xce, 0x96, 0x63, 0xbe,
  0x77, 0x43, 0x8f, 0x3b, 0x27, 0x69, 0x55, 0x3e, 0xa0, 0x3e, 0x9e, 0x3e,
  0x66, 0xdf, 0xab, 0xbc, 0x8e, 0x82, 0x7b, 0xbe, 0x9e, 0x72, 0x1c, 0xbe,
  0x77, 0x5d, 0x9a, 0x3e, 0x0b, 0x85, 0xca, 0xbe, 0x24, 0xaf, 0x3b, 0x3e,
  0x08, 0x6c, 0x9b, 0x3e, 0xa0, 0xd9, 0xce, 0xbe, 0xd8, 0xf8, 0x85, 0x3e,
  0x25, 0xa1, 0x58, 0x3e, 0xc3, 0x4c, 0xe4, 0x3e, 0xa7, 0x8d, 0x24, 0x3f,
  0x18, 0x8e, 0x87, 0xbe, 0xc7, 0x4b, 0xb8, 0x3e, 0x2d, 0x21, 0x10, 0x3f,
  0x00, 0x34, 0x78, 0x3e, 0xa0, 0xa5, 0x68, 0x3e, 0x9f, 0xe5, 0xd1, 0xbd,
  0x26, 0xb1, 0x82, 0xbd, 0x29, 0xb5, 0x41, 0x3e, 0x59, 0x3d, 0xc2, 0xbd,
  0x80, 0xe2, 0xd7, 0x3e, 0x02, 0x6c, 0xc5, 0x3d, 0x00, 0xb1, 0xa7, 0x3b,
  0x06, 0x0d, 0x8b, 0xbd, 0xa8, 0x12, 0x9e, 0x3e, 0xf1, 0xbc, 0xb6, 0xbe,
  0x58, 0x59, 0x63, 0xbe, 0x10, 0x95, 0x5f, 0xbd, 0xe0, 0xbd, 0x1b, 0xbd,
  0xc2, 0xb9, 0x8c, 0xbe, 0x84, 0x99, 0xd0, 0x3e, 0xf0, 0x25, 0x68, 0xbc,
  0x5b, 0x09, 0xdf, 0xbe, 0xf6, 0x4c, 0x16, 0x3e, 0x08, 0xe9, 0xe1, 0x3e,
  0x26, 0x84, 0x18, 0x3d, 0x1e, 0x5c, 0xdc, 0x3e, 0xd6, 0x77, 0x2a, 0x3f,
  0x60, 0x51, 0x2b, 0x3e, 0x59, 0x39, 0xf7, 0xbe, 0xbb, 0x6e, 0x26, 0x3e,
  0x53, 0x64, 0xab, 0x3d, 0x7b, 0xb1, 0x16, 0xbd, 0xa6, 0x73, 0xfc, 0x3e,
  0x18, 0xc6, 0x93, 0x3e, 0xe6, 0x85, 0x75, 0x3e, 0x30, 0x22, 0x3f, 0xbe,
  0x54, 0xf0, 0x7b, 0x3e, 0x4f, 0xbe, 0x59, 0x3e, 0x15, 0xa2, 0xa0, 0x3e,
  0x6a, 0xf9, 0xbc, 0xbe, 0x37, 0xb7, 0x2e, 0x3e, 0x5c, 0x11, 0xc5, 0xbe,
  0xd6, 0xbe, 0xae, 0x3e, 0xbc, 0x60, 0xaf, 0xbe, 0x78, 0x4b, 0x98, 0xbe,
  0xe8, 0x2b, 0x67, 0xbe, 0x27, 0x2f, 0x39, 0x3e, 0x0a, 0x6c, 0x2e, 0xbe,
  0xe1, 0x11, 0xaf, 0x3e, 0xb6, 0x54, 0x87, 0xbe, 0xce, 0x00, 0x1d, 0xbe,
  0x58, 0xaa, 0x4d, 0xbe, 0x52, 0x05, 0xc3, 0x3e, 0x67, 0xbb, 0x08, 0x3e,
  0x15, 0xae, 0xe5, 0xbd, 0xa4, 0x7a, 0xba, 0x3e, 0xe8, 0x7d, 0xdd, 0x3c,
  0x98, 0x29, 0x04, 0xbd, 0x56, 0xdf, 0x01, 0xbf, 0x90, 0xe1, 0xfe, 0x3d,
  0x68, 0x4c, 0xf7, 0x3e, 0xcf, 0x32, 0xb5, 0x3e, 0x9a, 0x15, 0xbb, 0x3e,
  0x66, 0xc8, 0xf2, 0xbd, 0xb7, 0xe2, 0x2d, 0x3f, 0x1f, 0xba, 0x74, 0x3e,
  0x31, 0x24, 0xab, 0x3e, 0x9c, 0x20, 0xc4, 0x3e, 0x3e, 0xe2, 0x16, 0xbd,
  0xe7, 0x17, 0x86, 0xbe, 0xc9, 0x6d, 0x21, 0xbe, 0xea, 0x1b, 0xfe, 0x3d,
  0x8e, 0xbf, 0x01, 0x3f, 0x73, 0x2b, 0x03, 0x3e, 0x9f, 0x27, 0xe2, 0x3e,
  0xb8, 0xe6, 0x2e, 0x3e, 0x46, 0xb3, 0x16, 0xbe, 0xde, 0x74, 0x47, 0xbd,
  0x08, 0xe0, 0x41, 0xbe, 0xee, 0xfe, 0xff, 0xff, 0x04, 0x00, 0x00, 0x00,
  0xc0, 0x00, 0x00, 0x00, 0x1a, 0xf7, 0xe1, 0x3e, 0x80, 0x42, 0x28, 0x3f,
  0xb3, 0xdf, 0x03, 0xbf, 0x15, 0xcd, 0x8d, 0x3d, 0xa2, 0x30, 0x54, 0x3e,
  0xce, 0x36, 0xe6, 0x3e, 0x16, 0x3d, 0x0d, 0x3e, 0xd8, 0x40, 0x8c, 0x3e,
  0x14, 0x06, 0x9c, 0x3e, 0x4c, 0x8e, 0x0f, 0xbe, 0x74, 0x49, 0x0b, 0x3e,
  0x16, 0xec, 0xfa, 0xbb, 0xe7, 0xc2, 0x14, 0xbe, 0x42, 0x33, 0x1e, 0xbf,
  0xba, 0x97, 0x11, 0xbf, 0x87, 0xef, 0xbe, 0xbd, 0x30, 0x2a, 0xc0, 0x3e,
  0xca, 0x39, 0x4e, 0x3e, 0x76, 0x68, 0xdf, 0x3d, 0x8b, 0x1b, 0x55, 0xbe,
  0x60, 0x02, 0x3c, 0xbf, 0x32, 0x49, 0x19, 0x3f, 0xa0, 0xeb, 0xa3, 0x3e,
  0x8e, 0x45, 0x85, 0xbe, 0x9b, 0x02, 0xa9, 0xbe, 0x8f, 0xd7, 0x2f, 0xbf,
  0x89, 0xc4, 0x9c, 0xbe, 0xcb, 0xbf, 0x93, 0xbe, 0xab, 0x43, 0xf6, 0x3e,
  0x24, 0xa9, 0xb1, 0x3e, 0x99, 0x47, 0x16, 0xbf, 0x5f, 0xb8, 0x53, 0xbe,
  0x79, 0x68, 0x48, 0x3e, 0xef, 0xfb, 0xea, 0x3d, 0x12, 0x8e, 0xd3, 0xbe,
  0x46, 0x02, 0x9c, 0x3e, 0xca, 0x4d, 0xb4, 0xbd, 0xdd, 0xec, 0x51, 0xbd,
  0x26, 0x58, 0x1e, 0xbf, 0xb7, 0x3a, 0x85, 0xbe, 0xb4, 0x6d, 0x0b, 0xbf,
  0x02, 0x5e, 0x83, 0xbe, 0x3b, 0xf1, 0x61, 0x3e, 0xe9, 0x29, 0xf3, 0xbe,
  0x36, 0xad, 0x45, 0x3f, 0x59, 0x18, 0xf6, 0x3e, 0xaa, 0x87, 0xce, 0x3e,
  0xb2, 0x61, 0xbb, 0x3c, 0xba, 0xff, 0xff, 0xff, 0x04, 0x00, 0x00, 0x00,
  0x0c, 0x00, 0x00, 0x00, 0xdc, 0x7c, 0xb6, 0xbd, 0x2c, 0x44, 0x89, 0x3d,
  0x6b, 0xb5, 0xd3, 0x3c, 0xd2, 0xff, 0xff, 0xff, 0x04, 0x00, 0x00, 0x00,
  0x20, 0x00, 0x00, 0x00, 0xf1, 0xa4, 0x0a, 0x3e, 0xea, 0x83, 0xa7, 0x3d,
  0xbf, 0xc7, 0x27, 0x3e, 0x30, 0x78, 0x3a, 0x3e, 0x00, 0x00, 0x00, 0x00,
  0x9c, 0x1b, 0x3c, 0x3e, 0xcd, 0x07, 0xe2, 0x3c, 0xf0, 0xc1, 0xd9, 0xbd,
  0x00, 0x00, 0x06, 0x00, 0x08, 0x00, 0x04, 0x00, 0x06, 0x00, 0x00, 0x00,
  0x04, 0x00, 0x00, 0x00, 0x40, 0x00, 0x00, 0x00, 0xa2, 0x4f, 0x12, 0x3e,
  0x1b, 0xf3, 0x2c, 0x3d, 0x66, 0x42, 0x93, 0x3d, 0xfc, 0x45, 0x5b, 0xbd,
  0xe3, 0xa6, 0x8e, 0x3d, 0xa8, 0xfa, 0x8f, 0x3d, 0xb8, 0x13, 0xbf, 0x3d,
  0xe6, 0x97, 0x80, 0x3d, 0x8d, 0x74, 0x9e, 0xbc, 0x2c, 0x63, 0xde, 0x3d,
  0x9a, 0x2a, 0x92, 0xbd, 0xbe, 0xe0, 0x2a, 0x3c, 0x21, 0x9e, 0x32, 0x3e,
  0xea, 0xad, 0x0c, 0x3e, 0x63, 0x8d, 0x1a, 0x3e, 0xea, 0x43, 0xf7, 0xbb,
  0x68, 0xf8, 0xff, 0xff, 0x6c, 0xf8, 0xff, 0xff, 0x0f, 0x00, 0x00, 0x00,
  0x4d, 0x4c, 0x49, 0x52, 0x20, 0x43, 0x6f, 0x6e, 0x76, 0x65, 0x72, 0x74,
  0x65, 0x64, 0x2e, 0x00, 0x01, 0x00, 0x00, 0x00, 0x14, 0x00, 0x00, 0x00,
  0x00, 0x00, 0x0e, 0x00, 0x18, 0x00, 0x14, 0x00, 0x10, 0x00, 0x0c, 0x00,
  0x08, 0x00, 0x04, 0x00, 0x0e, 0x00, 0x00, 0x00, 0x14, 0x00, 0x00, 0x00,
  0x1c, 0x00, 0x00, 0x00, 0x20, 0x01, 0x00, 0x00, 0x24, 0x01, 0x00, 0x00,
  0x28, 0x01, 0x00, 0x00, 0x04, 0x00, 0x00, 0x00, 0x6d, 0x61, 0x69, 0x6e,
  0x00, 0x00, 0x00, 0x00, 0x04, 0x00, 0x00, 0x00, 0xc8, 0x00, 0x00, 0x00,
  0x80, 0x00, 0x00, 0x00, 0x38, 0x00, 0x00, 0x00, 0x04, 0x00, 0x00, 0x00,
  0x9a, 0xff, 0xff, 0xff, 0x10, 0x00, 0x00, 0x00, 0x00, 0x00, 0x00, 0x08,
  0x0c, 0x00, 0x00, 0x00, 0x10, 0x00, 0x00, 0x00, 0xe8, 0xf8, 0xff, 0xff,
  0x01, 0x00, 0x00, 0x00, 0x0c, 0x00, 0x00, 0x00, 0x03, 0x00, 0x00, 0x00,
  0x0b, 0x00, 0x00, 0x00, 0x04, 0x00, 0x00, 0x00, 0x03, 0x00, 0x00, 0x00,
  0xca, 0xff, 0xff, 0xff, 0x10, 0x00, 0x00, 0x00, 0x00, 0x00, 0x00, 0x08,
  0x10, 0x00, 0x00, 0x00, 0x14, 0x00, 0x00, 0x00, 0x76, 0xff, 0xff, 0xff,
  0x00, 0x00, 0x00, 0x01, 0x01, 0x00, 0x00, 0x00, 0x0b, 0x00, 0x00, 0x00,
  0x03, 0x00, 0x00, 0x00, 0x0a, 0x00, 0x00, 0x00, 0x05, 0x00, 0x00, 0x00,
  0x01, 0x00, 0x00, 0x00, 0x00, 0x00, 0x0e, 0x00, 0x14, 0x00, 0x00, 0x00,
  0x10, 0x00, 0x0c, 0x00, 0x0b, 0x00, 0x04, 0x00, 0x0e, 0x00, 0x00, 0x00,
  0x10, 0x00, 0x00, 0x00, 0x00, 0x00, 0x00, 0x08, 0x10, 0x00, 0x00, 0x00,
  0x14, 0x00, 0x00, 0x00, 0xba, 0xff, 0xff, 0xff, 0x00, 0x00, 0x00, 0x01,
  0x01, 0x00, 0x00, 0x00, 0x0a, 0x00, 0x00, 0x00, 0x03, 0x00, 0x00, 0x00,
  0x09, 0x00, 0x00, 0x00, 0x06, 0x00, 0x00, 0x00, 0x02, 0x00, 0x00, 0x00,
  0x00, 0x00, 0x0e, 0x00, 0x16, 0x00, 0x00, 0x00, 0x10, 0x00, 0x0c, 0x00,
  0x0b, 0x00, 0x04, 0x00, 0x0e, 0x00, 0x00, 0x00, 0x18, 0x00, 0x00, 0x00,
  0x00, 0x00, 0x00, 0x08, 0x18, 0x00, 0x00, 0x00, 0x1c, 0x00, 0x00, 0x00,
  0x00, 0x00, 0x06, 0x00, 0x08, 0x00, 0x07, 0x00, 0x06, 0x00, 0x00, 0x00,
  0x00, 0x00, 0x00, 0x01, 0x01, 0x00, 0x00, 0x00, 0x09, 0x00, 0x00, 0x00,
  0x03, 0x00, 0x00, 0x00, 0x00, 0x00, 0x00, 0x00, 0x07, 0x00, 0x00, 0x00,
  0x08, 0x00, 0x00, 0x00, 0x01, 0x00, 0x00, 0x00, 0x0c, 0x00, 0x00, 0x00,
  0x01, 0x00, 0x00, 0x00, 0x00, 0x00, 0x00, 0x00, 0x0d, 0x00, 0x00, 0x00,
  0xfc, 0x05, 0x00, 0x00, 0x64, 0x05, 0x00, 0x00, 0xd0, 0x04, 0x00, 0x00,
  0x7c, 0x04, 0x00, 0x00, 0x24, 0x04, 0x00, 0x00, 0xc8, 0x03, 0x00, 0x00,
  0x70, 0x03, 0x00, 0x00, 0x14, 0x03, 0x00, 0x00, 0x94, 0x02, 0x00, 0x00,
  0xd4, 0x01, 0x00, 0x00, 0x20, 0x01, 0x00, 0x00, 0x60, 0x00, 0x00, 0x00,
  0x04, 0x00, 0x00, 0x00, 0x4e, 0xfa, 0xff, 0xff, 0x00, 0x00, 0x00, 0x01,
  0x14, 0x00, 0x00, 0x00, 0x1c, 0x00, 0x00, 0x00, 0x1c, 0x00, 0x00, 0x00,
  0x0d, 0x00, 0x00, 0x00, 0x34, 0x00, 0x00, 0x00, 0x02, 0x00, 0x00, 0x00,
  0xff, 0xff, 0xff, 0xff, 0x03, 0x00, 0x00, 0x00, 0x38, 0xfa, 0xff, 0xff,
  0x1b, 0x00, 0x00, 0x00, 0x53, 0x74, 0x61, 0x74, 0x65, 0x66, 0x75, 0x6c,
  0x50, 0x61, 0x72, 0x74, 0x69, 0x74, 0x69, 0x6f, 0x6e, 0x65, 0x64, 0x43,
  0x61, 0x6c, 0x6c, 0x5f, 0x31, 0x3a, 0x30, 0x00, 0x02, 0x00, 0x00, 0x00,
  0x01, 0x00, 0x00, 0x00, 0x03, 0x00, 0x00, 0x00, 0xa6, 0xfa, 0xff, 0xff,
  0x00, 0x00, 0x00, 0x01, 0x14, 0x00, 0x00, 0x00, 0x1c, 0x00, 0x00, 0x00,
  0x1c, 0x00, 0x00, 0x00, 0x0c, 0x00, 0x00, 0x00, 0x98, 0x00, 0x00, 0x00,
  0x02, 0x00, 0x00, 0x00, 0xff, 0xff, 0xff, 0xff, 0x10, 0x00, 0x00, 0x00,
  0x90, 0xfa, 0xff, 0xff, 0x7c, 0x00, 0x00, 0x00, 0x53, 0x65, 0x6e, 0x73,
  0x65, 0x77, 0x61, 0x72, 0x65, 0x41, 0x75, 0x74, 0x6f, 0x65, 0x6e, 0x63,
  0x6f, 0x64, 0x65, 0x72, 0x5f, 0x31, 0x2f, 0x64, 0x65, 0x63, 0x6f, 0x64,
  0x65, 0x72, 0x5f, 0x31, 0x5f, 0x31, 0x2f, 0x4d, 0x61, 0x74, 0x4d, 0x75,
  0x6c, 0x3b, 0x53, 0x65, 0x6e, 0x73, 0x65, 0x77, 0x61, 0x72, 0x65, 0x41,
  0x75, 0x74, 0x6f, 0x65, 0x6e, 0x63, 0x6f, 0x64, 0x65, 0x72, 0x5f, 0x31,
  0x2f, 0x64, 0x65, 0x63, 0x6f, 0x64, 0x65, 0x72, 0x5f, 0x31, 0x5f, 0x31,
  0x2f, 0x52, 0x65, 0x6c, 0x75, 0x3b, 0x53, 0x65, 0x6e, 0x73, 0x65, 0x77,
  0x61, 0x72, 0x65, 0x41, 0x75, 0x74, 0x6f, 0x65, 0x6e, 0x63, 0x6f, 0x64,
  0x65, 0x72, 0x5f, 0x31, 0x2f, 0x64, 0x65, 0x63, 0x6f, 0x64, 0x65, 0x72,
  0x5f, 0x31, 0x5f, 0x31, 0x2f, 0x42, 0x69, 0x61, 0x73, 0x41, 0x64, 0x64,
  0x00, 0x00, 0x00, 0x00, 0x02, 0x00, 0x00, 0x00, 0x01, 0x00, 0x00, 0x00,
  0x10, 0x00, 0x00, 0x00, 0x62, 0xfb, 0xff, 0xff, 0x00, 0x00, 0x00, 0x01,
  0x14, 0x00, 0x00, 0x00, 0x1c, 0x00, 0x00, 0x00, 0x1c, 0x00, 0x00, 0x00,
  0x0b, 0x00, 0x00, 0x00, 0x8c, 0x00, 0x00, 0x00, 0x02, 0x00, 0x00, 0x00,
  0xff, 0xff, 0xff, 0xff, 0x08, 0x00, 0x00, 0x00, 0x4c, 0xfb, 0xff, 0xff,
  0x73, 0x00, 0x00, 0x00, 0x53, 0x65, 0x6e, 0x73, 0x65, 0x77, 0x61, 0x72,
  0x65, 0x41, 0x75, 0x74, 0x6f, 0x65, 0x6e, 0x63, 0x6f, 0x64, 0x65, 0x72,
  0x5f, 0x31, 0x2f, 0x6c, 0x61, 0x74, 0x65, 0x6e, 0x74, 0x5f, 0x31, 0x2f,
  0x4d, 0x61, 0x74, 0x4d, 0x75, 0x6c, 0x3b, 0x53, 0x65, 0x6e, 0x73, 0x65,
  0x77, 0x61, 0x72, 0x65, 0x41, 0x75, 0x74, 0x6f, 0x65, 0x6e, 0x63, 0x6f,
  0x64, 0x65, 0x72, 0x5f, 0x31, 0x2f, 0x6c, 0x61, 0x74, 0x65, 0x6e, 0x74,
  0x5f, 0x31, 0x2f, 0x52, 0x65, 0x6c, 0x75, 0x3b, 0x53, 0x65, 0x6e, 0x73,
  0x65, 0x77, 0x61, 0x72, 0x65, 0x41, 0x75, 0x74, 0x6f, 0x65, 0x6e, 0x63,
  0x6f, 0x64, 0x65, 0x72, 0x5f, 0x31, 0x2f, 0x6c, 0x61, 0x74, 0x65, 0x6e,
  0x74, 0x5f, 0x31, 0x2f, 0x42, 0x69, 0x61, 0x73, 0x41, 0x64, 0x64, 0x00,
  0x02, 0x00, 0x00, 0x00, 0x01, 0x00, 0x00, 0x00, 0x08, 0x00, 0x00, 0x00,
  0x12, 0xfc, 0xff, 0xff, 0x00, 0x00, 0x00, 0x01, 0x14, 0x00, 0x00, 0x00,
  0x1c, 0x00, 0x00, 0x00, 0x1c, 0x00, 0x00, 0x00, 0x0a, 0x00, 0x00, 0x00,
  0x98, 0x00, 0x00, 0x00, 0x02, 0x00, 0x00, 0x00, 0xff, 0xff, 0xff, 0xff,
  0x10, 0x00, 0x00, 0x00, 0xfc, 0xfb, 0xff, 0xff, 0x7c, 0x00, 0x00, 0x00,
  0x53, 0x65, 0x6e, 0x73, 0x65, 0x77, 0x61, 0x72, 0x65, 0x41, 0x75, 0x74,
  0x6f, 0x65, 0x6e, 0x63, 0x6f, 0x64, 0x65, 0x72, 0x5f, 0x31, 0x2f, 0x65,
  0x6e, 0x63, 0x6f, 0x64, 0x65, 0x72, 0x5f, 0x31, 0x5f, 0x31, 0x2f, 0x4d,
  0x61, 0x74, 0x4d, 0x75, 0x6c, 0x3b, 0x53, 0x65, 0x6e, 0x73, 0x65, 0x77,
  0x61, 0x72, 0x65, 0x41, 0x75, 0x74, 0x6f, 0x65, 0x6e, 0x63, 0x6f, 0x64,
  0x65, 0x72, 0x5f, 0x31, 0x2f, 0x65, 0x6e, 0x63, 0x6f, 0x64, 0x65, 0x72,
  0x5f, 0x31, 0x5f, 0x31, 0x2f, 0x52, 0x65, 0x6c, 0x75, 0x3b, 0x53, 0x65,
  0x6e, 0x73, 0x65, 0x77, 0x61, 0x72, 0x65, 0x41, 0x75, 0x74, 0x6f, 0x65,
  0x6e, 0x63, 0x6f, 0x64, 0x65, 0x72, 0x5f, 0x31, 0x2f, 0x65, 0x6e, 0x63,
  0x6f, 0x64, 0x65, 0x72, 0x5f, 0x31, 0x5f, 0x31, 0x2f, 0x42, 0x69, 0x61,
  0x73, 0x41, 0x64, 0x64, 0x00, 0x00, 0x00, 0x00, 0x02, 0x00, 0x00, 0x00,
  0x01, 0x00, 0x00, 0x00, 0x10, 0x00, 0x00, 0x00, 0x62, 0xfd, 0xff, 0xff,
  0x00, 0x00, 0x00, 0x01, 0x10, 0x00, 0x00, 0x00, 0x10, 0x00, 0x00, 0x00,
  0x09, 0x00, 0x00, 0x00, 0x60, 0x00, 0x00, 0x00, 0xa8, 0xfc, 0xff, 0xff,
  0x52, 0x00, 0x00, 0x00, 0x53, 0x65, 0x6e, 0x73, 0x65, 0x77, 0x61, 0x72,
  0x65, 0x41, 0x75, 0x74, 0x6f, 0x65, 0x6e, 0x63, 0x6f, 0x64, 0x65, 0x72,
  0x5f, 0x31, 0x2f, 0x65, 0x6e, 0x63, 0x6f, 0x64, 0x65, 0x72, 0x5f, 0x31,
  0x5f, 0x31, 0x2f, 0x52, 0x65, 0x6c, 0x75, 0x3b, 0x53, 0x65, 0x6e, 0x73,
  0x65, 0x77, 0x61, 0x72, 0x65, 0x41, 0x75, 0x74, 0x6f, 0x65, 0x6e, 0x63,
  0x6f, 0x64, 0x65, 0x72, 0x5f, 0x31, 0x2f, 0x65, 0x6e, 0x63, 0x6f, 0x64,
  0x65, 0x72, 0x5f, 0x31, 0x5f, 0x31, 0x2f, 0x42, 0x69, 0x61, 0x73, 0x41,
  0x64, 0x64, 0x00, 0x00, 0x01, 0x00, 0x00, 0x00, 0x10, 0x00, 0x00, 0x00,
  0xde, 0xfd, 0xff, 0xff, 0x00, 0x00, 0x00, 0x01, 0x10, 0x00, 0x00, 0x00,
  0x10, 0x00, 0x00, 0x00, 0x08, 0x00, 0x00, 0x00, 0x38, 0x00, 0x00, 0x00,
  0x24, 0xfd, 0xff, 0xff, 0x29, 0x00, 0x00, 0x00, 0x53, 0x65, 0x6e, 0x73,
  0x65, 0x77, 0x61, 0x72, 0x65, 0x41, 0x75, 0x74, 0x6f, 0x65, 0x6e, 0x63,
  0x6f, 0x64, 0x65, 0x72, 0x5f, 0x31, 0x2f, 0x65, 0x6e, 0x63, 0x6f, 0x64,
  0x65, 0x72, 0x5f, 0x31, 0x5f, 0x31, 0x2f, 0x4d, 0x61, 0x74, 0x4d, 0x75,
  0x6c, 0x00, 0x00, 0x00, 0x02, 0x00, 0x00, 0x00, 0x10, 0x00, 0x00, 0x00,
  0x03, 0x00, 0x00, 0x00, 0x36, 0xfe, 0xff, 0xff, 0x00, 0x00, 0x00, 0x01,
  0x10, 0x00, 0x00, 0x00, 0x10, 0x00, 0x00, 0x00, 0x07, 0x00, 0x00, 0x00,
  0x34, 0x00, 0x00, 0x00, 0x7c, 0xfd, 0xff, 0xff, 0x26, 0x00, 0x00, 0x00,
  0x53, 0x65, 0x6e, 0x73, 0x65, 0x77, 0x61, 0x72, 0x65, 0x41, 0x75, 0x74,
  0x6f, 0x65, 0x6e, 0x63, 0x6f, 0x64, 0x65, 0x72, 0x5f, 0x31, 0x2f, 0x6c,
  0x61, 0x74, 0x65, 0x6e, 0x74, 0x5f, 0x31, 0x2f, 0x4d, 0x61, 0x74, 0x4d,
  0x75, 0x6c, 0x00, 0x00, 0x02, 0x00, 0x00, 0x00, 0x08, 0x00, 0x00, 0x00,
  0x10, 0x00, 0x00, 0x00, 0x8a, 0xfe, 0xff, 0xff, 0x00, 0x00, 0x00, 0x01,
  0x10, 0x00, 0x00, 0x00, 0x10, 0x00, 0x00, 0x00, 0x06, 0x00, 0x00, 0x00,
  0x38, 0x00, 0x00, 0x00, 0xd0, 0xfd, 0xff, 0xff, 0x29, 0x00, 0x00, 0x00,
  0x53, 0x65, 0x6e, 0x73, 0x65, 0x77, 0x61, 0x72, 0x65, 0x41, 0x75, 0x74,
  0x6f, 0x65, 0x6e, 0x63, 0x6f, 0x64, 0x65, 0x72, 0x5f, 0x31, 0x2f, 0x64,
  0x65, 0x63, 0x6f, 0x64, 0x65, 0x72, 0x5f, 0x31, 0x5f, 0x31, 0x2f, 0x4d,
  0x61, 0x74, 0x4d, 0x75, 0x6c, 0x00, 0x00, 0x00, 0x02, 0x00, 0x00, 0x00,
  0x10, 0x00, 0x00, 0x00, 0x08, 0x00, 0x00, 0x00, 0xe2, 0xfe, 0xff, 0xff,
  0x00, 0x00, 0x00, 0x01, 0x10, 0x00, 0x00, 0x00, 0x10, 0x00, 0x00, 0x00,
  0x05, 0x00, 0x00, 0x00, 0x34, 0x00, 0x00, 0x00, 0x28, 0xfe, 0xff, 0xff,
  0x26, 0x00, 0x00, 0x00, 0x53, 0x65, 0x6e, 0x73, 0x65, 0x77, 0x61, 0x72,
  0x65, 0x41, 0x75, 0x74, 0x6f, 0x65, 0x6e, 0x63, 0x6f, 0x64, 0x65, 0x72,
  0x5f, 0x31, 0x2f, 0x6f, 0x75, 0x74, 0x70, 0x75, 0x74, 0x5f, 0x31, 0x2f,
  0x4d, 0x61, 0x74, 0x4d, 0x75, 0x6c, 0x00, 0x00, 0x02, 0x00, 0x00, 0x00,
  0x03, 0x00, 0x00, 0x00, 0x10, 0x00, 0x00, 0x00, 0x36, 0xff, 0xff, 0xff,
  0x00, 0x00, 0x00, 0x01, 0x10, 0x00, 0x00, 0x00, 0x10, 0x00, 0x00, 0x00,
  0x04, 0x00, 0x00, 0x00, 0x34, 0x00, 0x00, 0x00, 0x7c, 0xfe, 0xff, 0xff,
  0x27, 0x00, 0x00, 0x00, 0x53, 0x65, 0x6e, 0x73, 0x65, 0x77, 0x61, 0x72,
  0x65, 0x41, 0x75, 0x74, 0x6f, 0x65, 0x6e, 0x63, 0x6f, 0x64, 0x65, 0x72,
  0x5f, 0x31, 0x2f, 0x6f, 0x75, 0x74, 0x70, 0x75, 0x74, 0x5f, 0x31, 0x2f,
  0x42, 0x69, 0x61, 0x73, 0x41, 0x64, 0x64, 0x00, 0x01, 0x00, 0x00, 0x00,
  0x03, 0x00, 0x00, 0x00, 0x86, 0xff, 0xff, 0xff, 0x00, 0x00, 0x00, 0x01,
  0x10, 0x00, 0x00, 0x00, 0x10, 0x00, 0x00, 0x00, 0x03, 0x00, 0x00, 0x00,
  0x5c, 0x00, 0x00, 0x00, 0xcc, 0xfe, 0xff, 0xff, 0x4c, 0x00, 0x00, 0x00,
  0x53, 0x65, 0x6e, 0x73, 0x65, 0x77, 0x61, 0x72, 0x65, 0x41, 0x75, 0x74,
  0x6f, 0x65, 0x6e, 0x63, 0x6f, 0x64, 0x65, 0x72, 0x5f, 0x31, 0x2f, 0x6c,
  0x61, 0x74, 0x65, 0x6e, 0x74, 0x5f, 0x31, 0x2f, 0x52, 0x65, 0x6c, 0x75,
  0x3b, 0x53, 0x65, 0x6e, 0x73, 0x65, 0x77, 0x61, 0x72, 0x65, 0x41, 0x75,
  0x74, 0x6f, 0x65, 0x6e, 0x63, 0x6f, 0x64, 0x65, 0x72, 0x5f, 0x31, 0x2f,
  0x6c, 0x61, 0x74, 0x65, 0x6e, 0x74, 0x5f, 0x31, 0x2f, 0x42, 0x69, 0x61,
  0x73, 0x41, 0x64, 0x64, 0x00, 0x00, 0x00, 0x00, 0x01, 0x00, 0x00, 0x00,
  0x08, 0x00, 0x00, 0x00, 0x00, 0x00, 0x16, 0x00, 0x18, 0x00, 0x14, 0x00,
  0x00, 0x00, 0x10, 0x00, 0x0c, 0x00, 0x08, 0x00, 0x00, 0x00, 0x00, 0x00,
  0x00, 0x00, 0x07, 0x00, 0x16, 0x00, 0x00, 0x00, 0x00, 0x00, 0x00, 0x01,
  0x10, 0x00, 0x00, 0x00, 0x10, 0x00, 0x00, 0x00, 0x02, 0x00, 0x00, 0x00,
  0x60, 0x00, 0x00, 0x00, 0x5c, 0xff, 0xff, 0xff, 0x52, 0x00, 0x00, 0x00,
  0x53, 0x65, 0x6e, 0x73, 0x65, 0x77, 0x61, 0x72, 0x65, 0x41, 0x75, 0x74,
  0x6f, 0x65, 0x6e, 0x63, 0x6f, 0x64, 0x65, 0x72, 0x5f, 0x31, 0x2f, 0x64,
  0x65, 0x63, 0x6f, 0x64, 0x65, 0x72, 0x5f, 0x31, 0x5f, 0x31, 0x2f, 0x52,
  0x65, 0x6c, 0x75, 0x3b, 0x53, 0x65, 0x6e, 0x73, 0x65, 0x77, 0x61, 0x72,
  0x65, 0x41, 0x75, 0x74, 0x6f, 0x65, 0x6e, 0x63, 0x6f, 0x64, 0x65, 0x72,
  0x5f, 0x31, 0x2f, 0x64, 0x65, 0x63, 0x6f, 0x64, 0x65, 0x72, 0x5f, 0x31,
  0x5f, 0x31, 0x2f, 0x42, 0x69, 0x61, 0x73, 0x41, 0x64, 0x64, 0x00, 0x00,
  0x01, 0x00, 0x00, 0x00, 0x10, 0x00, 0x00, 0x00, 0x00, 0x00, 0x16, 0x00,
  0x1c, 0x00, 0x18, 0x00, 0x00, 0x00, 0x14, 0x00, 0x10, 0x00, 0x0c, 0x00,
  0x00, 0x00, 0x00, 0x00, 0x08, 0x00, 0x07, 0x00, 0x16, 0x00, 0x00, 0x00,
  0x00, 0x00, 0x00, 0x01, 0x14, 0x00, 0x00, 0x00, 0x20, 0x00, 0x00, 0x00,
  0x20, 0x00, 0x00, 0x00, 0x01, 0x00, 0x00, 0x00, 0x3c, 0x00, 0x00, 0x00,
  0x02, 0x00, 0x00, 0x00, 0xff, 0xff, 0xff, 0xff, 0x03, 0x00, 0x00, 0x00,
  0x04, 0x00, 0x04, 0x00, 0x04, 0x00, 0x00, 0x00, 0x1e, 0x00, 0x00, 0x00,
  0x73, 0x65, 0x72, 0x76, 0x69, 0x6e, 0x67, 0x5f, 0x64, 0x65, 0x66, 0x61,
  0x75, 0x6c, 0x74, 0x5f, 0x6b, 0x65, 0x72, 0x61, 0x73, 0x5f, 0x74, 0x65,
  0x6e, 0x73, 0x6f, 0x72, 0x3a, 0x30, 0x00, 0x00, 0x02, 0x00, 0x00, 0x00,
  0x01, 0x00, 0x00, 0x00, 0x03, 0x00, 0x00, 0x00, 0x01, 0x00, 0x00, 0x00,
  0x10, 0x00, 0x00, 0x00, 0x0c, 0x00, 0x0c, 0x00, 0x0b, 0x00, 0x00, 0x00,
  0x00, 0x00, 0x04, 0x00, 0x0c, 0x00, 0x00, 0x00, 0x09, 0x00, 0x00, 0x00,
  0x00, 0x00, 0x00, 0x09
};
unsigned int senseware_model_tflite_len = 4216;

#endif /* SENSEWARE_MODEL_DATA_H */
