/* Auto-generated by train_autoencoder.py — do not edit manually. */
#ifndef SENSEWARE_MODEL_DATA_H
#define SENSEWARE_MODEL_DATA_H

unsigned char senseware_model_tflite[] = {
  0x1c, 0x00, 0x00, 0x00, 0x54, 0x46, 0x4c, 0x33, 0x14, 0x00, 0x20, 0x00,
  0x1c, 0x00, 0x18, 0x00, 0x14, 0x00, 0x10, 0x00, 0x0c, 0x00, 0x00, 0x00,
  0x08, 0x00, 0x04, 0x00, 0x14, 0x00, 0x00, 0x00, 0x1c, 0x00, 0x00, 0x00,
  0x98, 0x00, 0x00, 0x00, 0xf0, 0x00, 0x00, 0x00, 0x64, 0x08, 0x00, 0x00,
  0x74, 0x08, 0x00, 0x00, 0x24, 0x10, 0x00, 0x00, 0x03, 0x00, 0x00, 0x00,
  0x01, 0x00, 0x00, 0x00, 0x10, 0x00, 0x00, 0x00, 0x00, 0x00, 0x0a, 0x00,
  0x10, 0x00, 0x0c, 0x00, 0x08, 0x00, 0x04, 0x00, 0x0a, 0x00, 0x00, 0x00,
  0x0c, 0x00, 0x00, 0x00, 0x1c, 0x00, 0x00, 0x00, 0x3c, 0x00, 0x00, 0x00,
  0x0f, 0x00, 0x00, 0x00, 0x73, 0x65, 0x72, 0x76, 0x69, 0x6e, 0x67, 0x5f,
  0x64, 0x65, 0x66, 0x61, 0x75, 0x6c, 0x74, 0x00, 0x01, 0x00, 0x00, 0x00,
  0x04, 0x00, 0x00, 0x00, 0x90, 0xff, 0xff, 0xff, 0x0c, 0x00, 0x00, 0x00,
  0x04, 0x00, 0x00, 0x00, 0x08, 0x00, 0x00, 0x00, 0x6f, 0x75, 0x74, 0x70,
  0x75, 0x74, 0x5f, 0x30, 0x00, 0x00, 0x00, 0x00, 0x01, 0x00, 0x00, 0x00,
  0x04, 0x00, 0x00, 0x00, 0x6a, 0xf8, 0xff, 0xff, 0x04, 0x00, 0x00, 0x00,
  0x0c, 0x00, 0x00, 0x00, 0x6b, 0x65, 0x72, 0x61, 0x73, 0x5f, 0x74, 0x65,
  0x6e, 0x73, 0x6f, 0x72, 0x00, 0x00, 0x00, 0x00, 0x02, 0x00, 0x00, 0x00,
  0x34, 0x00, 0x00, 0x00, 0x04, 0x00, 0x00, 0x00, 0xdc, 0xff, 0xff, 0xff,
  0x0f, 0x00, 0x00, 0x00, 0x04, 0x00, 0x00, 0x00, 0x13, 0x00, 0x00, 0x00,
  0x43, 0x4f, 0x4e, 0x56, 0x45, 0x52, 0x53, 0x49, 0x4f, 0x4e, 0x5f, 0x4d,
  0x45, 0x54, 0x41, 0x44, 0x41, 0x54, 0x41, 0x00, 0x08, 0x00, 0x0c, 0x00,
  0x08, 0x00, 0x04, 0x00, 0x08, 0x00, 0x00, 0x00, 0x0e, 0x00, 0x00, 0x00,
  0x04, 0x00, 0x00, 0x00, 0x13, 0x00, 0x00, 0x00, 0x6d, 0x69, 0x6e, 0x5f,
  0x72, 0x75, 0x6e, 0x74, 0x69, 0x6d, 0x65, 0x5f, 0x76, 0x65, 0x72, 0x73,
  0x69, 0x6f, 0x6e, 0x00, 0x10, 0x00, 0x00, 0x00, 0x70, 0x07, 0x00, 0x00,
  0x68, 0x07, 0x00, 0x00, 0x18, 0x07, 0x00, 0x00, 0xe0, 0x06, 0x00, 0x00,
  0xc4, 0x06, 0x00, 0x00, 0xf4, 0x05, 0x00, 0x00, 0xe4, 0x03, 0x00, 0x00,
  0xd4, 0x01, 0x00, 0x00, 0x04, 0x01, 0x00, 0x00, 0xb4, 0x00, 0x00, 0x00,
  0xac, 0x00, 0x00, 0x00, 0xa4, 0x00, 0x00, 0x00, 0x9c, 0x00, 0x00, 0x00,
  0x94, 0x00, 0x00, 0x00, 0x74, 0x00, 0x00, 0x00, 0x04, 0x00, 0x00, 0x00,
  0x26, 0xf9, 0xff, 0xff, 0x04, 0x00, 0x00, 0x00, 0x60, 0x00, 0x00, 0x00,
  0x10, 0x00, 0x00, 0x00, 0x00, 0x00, 0x00, 0x00, 0x08, 0x00, 0x0e, 0x00,
  0x08, 0x00, 0x04, 0x00, 0x08, 0x00, 0x00, 0x00, 0x10, 0x00, 0x00, 0x00,
  0x24, 0x00, 0x00, 0x00, 0x00, 0x00, 0x06, 0x00, 0x08, 0x00, 0x04, 0x00,
  0x06, 0x00, 0x00, 0x00, 0x04, 0x00, 0x00, 0x00, 0x00, 0x00, 0x00, 0x00,
  0x0c, 0x00, 0x18, 0x00, 0x14, 0x00, 0x10, 0x00, 0x0c, 0x00, 0x04, 0x00,
  0x0c, 0x00, 0x00, 0x00, 0xcd, 0x98, 0xa3, 0x75, 0x1a, 0x14, 0xd0, 0xc4,
  0x02, 0x00, 0x00, 0x00, 0x02, 0x00, 0x00, 0x00, 0x04, 0x00, 0x00, 0x00,
  0x06, 0x00, 0x00, 0x00, 0x32, 0x2e, 0x32, 0x31, 0x2e, 0x30, 0x00, 0x00,
  0x92, 0xf9, 0xff, 0xff, 0x04, 0x00, 0x00, 0x00, 0x10, 0x00, 0x00, 0x00,
  0x31, 0x2e, 0x35, 0x2e, 0x30, 0x00, 0x00, 0x00, 0x00, 0x00, 0x00, 0x00,
  0x00, 0x00, 0x00, 0x00, 0xc4, 0xf1, 0xff, 0xff, 0xc8, 0xf1, 0xff, 0xff,
  0xcc, 0xf1, 0xff, 0xff, 0xd0, 0xf1, 0xff, 0xff, 0xbe, 0xf9, 0xff, 0xff,
  0x04, 0x00, 0x00, 0x00, 0x40, 0x00, 0x00, 0x00, 0x29, 0x88, 0xae, 0x3d,
  0x2f, 0x44, 0x3c, 0x3e, 0x45, 0x76, 0xe5, 0x3e, 0xba, 0x7a, 0x23, 0x3d,
  0x0f, 0x1d, 0xcb, 0x3e, 0x3c, 0x2d, 0x6f, 0xbe, 0x88, 0x54, 0x35, 0xbe,
  0xd0, 0x67, 0xcb, 0x3e, 0xd1, 0xd1, 0x20, 0x3e, 0x95, 0x5a, 0xe1, 0x3d,
  0x17, 0x7a, 0x53, 0x3e, 0x2a, 0x36, 0x0c, 0xbe, 0x55, 0x63, 0x58, 0xbe,
  0xa1, 0x98, 0x9e, 0xbd, 0x12, 0xc8, 0x84, 0x3c, 0xe6, 0xc1, 0x37, 0xbe,
  0x0a, 0xfa, 0xff, 0xff, 0x04, 0x00, 0x00, 0x00, 0xc0, 0x00, 0x00, 0x00,
  0xa9, 0x39, 0xdb, 0x3e, 0xac, 0x92, 0x43, 0x3e, 0x6e, 0x82, 0xa9, 0xbe,
  0xa4, 0xb1, 0x2c, 0x3f, 0x46, 0x46, 0x1e, 0xbf, 0x8b, 0x6a, 0xed, 0xbe,
  0x5c, 0xa7, 0xc5, 0x3c, 0xbb, 0x00, 0x38, 0x3f, 0x4f, 0x24, 0x6c, 0xbe,
  0xbf, 0x4f, 0xe9, 0x3e, 0xa5, 0x5b, 0x9a, 0x3e, 0x44, 0x48, 0xb4, 0x3e,
  0x01, 0x3d, 0xbb, 0xbe, 0x96, 0x77, 0xd2, 0x3e, 0xce, 0x63, 0xb8, 0xbe,
  0x2b, 0xe8, 0xa8, 0xbe, 0x7a, 0xd5, 0x81, 0x3e, 0xf1, 0x9f, 0x88, 0x3d,
  0xa5, 0xbc, 0x05, 0x3f, 0x1f, 0x72, 0x9a, 0x3e, 0x9c, 0xff, 0xbd, 0x3e,
  0xc2, 0xc1, 0xaa, 0xbd, 0x86, 0x4d, 0x31, 0x3f, 0xf8, 0xe2, 0x23, 0xbf,
  0x5f, 0x8c, 0xc4, 0xbe, 0x98, 0xa2, 0x57, 0xbe, 0x25, 0xcc, 0xa2, 0xbe,
  0x01, 0xd4, 0x26, 0xbf, 0x79, 0xba, 0xbf, 0xbe, 0x7d, 0xce, 0xea, 0xbe,
  0xde, 0x90, 0x27, 0x3f, 0x78, 0x8b, 0xf8, 0x3e, 0x0d, 0x21, 0xd1, 0xbe,
  0x90, 0x51, 0xf0, 0xbe, 0xc8, 0xdd, 0xdd, 0x3e, 0x13, 0xe4, 0xb0, 0x3e,
  0x19, 0xa9, 0xb7, 0x3d, 0xe7, 0x59, 0x74, 0xbe, 0xe2, 0x19, 0xb4, 0x3d,
  0xbf, 0x54, 0xa4, 0xbe, 0xa3, 0x28, 0x71, 0xbe, 0x16, 0xc1, 0x6c, 0x3e,
  0x37, 0xb9, 0xbe, 0x3e, 0x35, 0x28, 0x5c, 0xbe, 0x5a, 0x45, 0x89, 0xbe,
  0xe5, 0x8f, 0xd2, 0x3b, 0xcd, 0x5a, 0xc4, 0xbe, 0xc2, 0xda, 0xb9, 0x3e,
  0xd6, 0xfa, 0xff, 0xff, 0x04, 0x00, 0x00, 0x00, 0x00, 0x02, 0x00, 0x00,
  0x54, 0xa6, 0xa4, 0x3c, 0x32, 0xba, 0x14, 0xbe, 0x29, 0xe1, 0x98, 0xbe,
  0xb3, 0x26, 0x36, 0xbd, 0xf8, 0x25, 0xda, 0xbe, 0x9a, 0xb9, 0x31, 0x3e,
  0xef, 0x12, 0xa3, 0x3e, 0xf4, 0x2b, 0xd5, 0xbc, 0xa0, 0x71, 0x14, 0x3e,
  0x9b, 0x84, 0xc4, 0xbe, 0xef, 0xbf, 0x9f, 0xbd, 0xe7, 0x2b, 0xe2, 0x3e,
  0x4f, 0x0a, 0xff, 0x3a, 0x9a, 0x90, 0x88, 0x3d, 0x3a, 0x35, 0xc3, 0xbe,
  0xe4, 0x91, 0x44, 0x3e, 0xd1, 0xcf, 0xa1, 0xbd, 0x1a, 0x48, 0xe6, 0xbd,
  0x00, 0x98, 0x09, 0xbe, 0xda, 0x33, 0x3a, 0xbd, 0xad, 0x46, 0x71, 0x3e,
  0xac, 0x8a, 0x9c, 0x3d, 0xfd, 0xdc, 0x4d, 0x3d, 0x92, 0xe3, 0x2d, 0xbe,
  0xab, 0xa0, 0x8b, 0xbc, 0x91, 0x84, 0x89, 0xbd, 0xc0, 0xa5, 0x42, 0x3e,
  0x08, 0xaf, 0x34, 0xbe, 0xd2, 0x8a, 0xaf, 0x3e, 0x42, 0xff, 0x36, 0x3e,
  0x27, 0xd4, 0xb7, 0x3e, 0x99, 0x1e, 0x1d, 0x3f, 0x27, 0xd3, 0x13, 0x3e,
  0x52, 0x35, 0x59, 0x3b, 0x15, 0xa4, 0xd2, 0x3e, 0xd6, 0x70, 0xf1, 0x3e,
  0xe0, 0x2d, 0xf3, 0x3e, 0x98, 0x87, 0xaa, 0x3e, 0xb0, 0xb0, 0xc2, 0xbb,
  0x3d, 0xd5, 0x09, 0x3f, 0x41, 0x05, 0x3d, 0x3e, 0x8c, 0x46, 0x8d, 0x3e,
  0xa6, 0x9c, 0x2b, 0x3e, 0xb3, 0xb5, 0x2e, 0x3f, 0x1f, 0xae, 0x2b, 0xbe,
  0x39, 0xbc, 0x29, 0x3d, 0xb6, 0x5d, 0xab, 0xbc, 0xe3, 0x97, 0xc5, 0xbe,
  0x51, 0x81, 0x5f, 0xbe, 0x29, 0x41, 0xc5, 0x3e, 0x77, 0x64, 0x38, 0x3e,
  0x7e, 0x25, 0x49, 0x3d, 0xff, 0x70, 0xe2, 0x3d, 0x42, 0x33, 0x1f, 0x3c,
  0xaf, 0xdc, 0xb0, 0xbe, 0x85, 0xf9, 0x0d, 0x3e, 0x27, 0x27, 0x96, 0x3e,
  0x43, 0x81, 0x4c, 0x3f, 0xa7, 0x89, 0x48, 0x3e, 0xa9, 0xbb, 0x8a, 0x3e,
  0xf5, 0xb9, 0x1f, 0x3d, 0x4f, 0xef, 0xae, 0x3e, 0xdc, 0x24, 0x9e, 0xbd,
  0xc5, 0x16, 0x65, 0x3d, 0xb9, 0x64, 0xf4, 0xbe, 0x91, 0x86, 0x3b, 0xbe,
  0xf4, 0x96, 0xd5, 0xbe, 0x91, 0x28, 0x4d, 0xbe, 0xfe, 0xe7, 0xed, 0xbe,
  0x07, 0x2d, 0x3e, 0x3d, 0x63, 0x7f, 0x26, 0x3e, 0x90, 0x22, 0xbf, 0xbd,
  0xe3, 0x35, 0x22, 0x3e, 0xd1, 0x77, 0xe8, 0xbe, 0x00, 0x04, 0xde, 0xbd,
  0x18, 0x54, 0xe9, 0xbe, 0x7d, 0xb5, 0xdf, 0xbe, 0xd3, 0x9c, 0xf9, 0x3d,
  0x00, 0xc4, 0xaf, 0xbb, 0x17, 0xfb, 0x41, 0x3e, 0x2f, 0xa4, 0x0e, 0x3f,
  0xc1, 0xff, 0x3a, 0x3e, 0xad, 0x8f, 0x86, 0x3d, 0x0d, 0x5c, 0x08, 0x3e,
  0x97, 0xef, 0x08, 0x3f, 0xd8, 0xb6, 0x55, 0x3d, 0x4c, 0x1b, 0xbb, 0xbe,
  0x79, 0x73, 0x6e, 0x3e, 0x8c, 0x7c, 0x37, 0x3f, 0x54, 0x24, 0x5b, 0xbd,
  0xf4, 0x09, 0x52, 0xbd, 0x55, 0x0e, 0xc2, 0xbe, 0x5f, 0x31, 0xb4, 0xbe,
  0x77, 0x38, 0xad, 0xbe, 0x9a, 0x1c, 0x9c, 0x3e, 0x22, 0x8e, 0x3b, 0xbd,
  0x8f, 0xe2, 0x2c, 0x3e, 0x2e, 0xbd, 0xb8, 0x3d, 0xca, 0x2a, 0xeb, 0xbd,
  0x80, 0xdf, 0x0b, 0x3f, 0x17, 0x88, 0x2c, 0xbd, 0x8e, 0x37, 0x09, 0xbe,
  0x3f, 0x40, 0xcb, 0x3d, 0x27, 0xbd, 0x17, 0x3e, 0x78, 0x3a, 0x0d, 0xbe,
  0x44, 0x75, 0x7c, 0xbe, 0x76, 0x77, 0x8c, 0xbe, 0xf8, 0x93, 0x0a, 0x3e,
  0x08, 0x5c, 0xde, 0x3d, 0xf7, 0x1e, 0x8b, 0x3e, 0x41, 0xc3, 0x7f, 0xbd,
  0x28, 0x66, 0xaa, 0x3c, 0x96, 0x58, 0x8c, 0xbe, 0x0f, 0xf0, 0xfe, 0x3e,
  0xe8, 0xfc, 0xfb, 0x3e, 0x2e, 0x4c, 0x09, 0x3f, 0x0e, 0xf8, 0x15, 0xbe,
  0x9f, 0x24, 0x1c, 0xbe, 0x17, 0x0d, 0x7a, 0x3e, 0x8e, 0x0e, 0xc1, 0x3d,
  0x84, 0x4f, 0x15, 0x3f, 0x98, 0x38, 0xb5, 0xbb, 0xf1, 0xdb, 0x20, 0x3f,
  0x07, 0x96, 0xa9, 0xbd, 0xb3, 0xa3, 0xe9, 0x3d, 0xe3, 0x2a, 0x85, 0xbe,
  0xc8, 0x48, 0xe6, 0x3e, 0xd6, 0xca, 0xd5, 0x3d, 0xe2, 0xfc, 0xff, 0xff,
  0x04, 0x00, 0x00, 0x00, 0x00, 0x02, 0x00, 0x00, 0xc4, 0xe9, 0x9b, 0x3d,
  0x4d, 0xc1, 0xae, 0xbe, 0xd9, 0x0c, 0x1b, 0x3e, 0xd8, 0xbe, 0x95, 0xbd,
  0x86, 0xfd, 0x07, 0x3e, 0x72, 0x1f, 0x95, 0xbe, 0x03, 0x2d, 0xe0, 0xbd,
  0x42, 0x94, 0x8f, 0xbe, 0x7b, 0x20, 0xbd, 0xbe, 0xf6, 0x03, 0x46, 0xbe,
  0x36, 0x63, 0xd0, 0xbe, 0x16, 0x5b, 0x43, 0x3e, 0xc9, 0xe4, 0x91, 0x3e,
  0x40, 0x44, 0xe6, 0x3d, 0x9e, 0x44, 0xf0, 0xbd, 0xdb, 0x61, 0xda, 0xbe,
  0x36, 0x2d, 0x52, 0xbd, 0x1b, 0x16, 0x49, 0xbe, 0x8a, 0x68, 0x90, 0xbe,
  0xfa, 0xe6, 0xe7, 0x3e, 0xba, 0xe8, 0x4c, 0xbe, 0x97, 0x47, 0xea, 0x3d,
  0x04, 0x2a, 0xc0, 0x3b, 0x68, 0xa2, 0x46, 0x3e, 0x47, 0x06, 0xfa, 0x3e,
  0x0e, 0xcb, 0xbf, 0x3e, 0xc9, 0xa4, 0xcf, 0xbe, 0x9f, 0xf7, 0x8e, 0x3e,
  0x7a, 0x64, 0xdf, 0xbd, 0x1d, 0xbb, 0x02, 0x3e, 0xcc, 0xc6, 0xc6, 0x3d,
  0xfc, 0x8e, 0xb7, 0xbd, 0xbc, 0xd6, 0xcc, 0xbd, 0xa0, 0x43, 0xbb, 0x3e,
  0xbb, 0x05, 0xcb, 0xbe, 0x91, 0x12, 0x11, 0xbd, 0x91, 0xd6, 0x8f, 0x3e,
  0x10, 0x5f, 0x79, 0x3e, 0x67, 0xb6, 0x8a, 0xbe, 0x88, 0x06, 0x16, 0x3f,
  0xa6, 0x97, 0x63, 0xbc, 0x98, 0xd6, 0xe1, 0xbd, 0x70, 0x3c, 0xd0, 0x3e,
  0xb4, 0x13, 0x91, 0x3e, 0x71, 0x82, 0xd4, 0x3e, 0x44, 0x6c, 0xa5, 0x3e,
  0xf3, 0x8f, 0xb2, 0xbd, 0x58, 0x6d, 0x0f, 0x3d, 0xd1, 0x63, 0x42, 0xbe,
  0x57, 0x67, 0xfc, 0xbd, 0xda, 0xb0, 0x1d, 0x3f, 0x6b, 0x46, 0x14, 0x3f,
  0xed, 0x2d, 0x21, 0x3e, 0x16, 0xdb, 0x26, 0x3f, 0xec, 0x59, 0x87, 0xbd,
  0x43, 0x13, 0x78, 0xbe, 0x03, 0x6a, 0xba, 0x3e, 0xa0, 0x11, 0xb0, 0x3e,
  0x47, 0xe7, 0xb7, 0x3d, 0x20, 0x4a, 0x1a, 0x3d, 0x31, 0x29, 0x6b, 0xbe,
  0xde, 0x2c, 0xcc, 0xbe, 0x7a, 0x8a, 0x39, 0x3e, 0xcd, 0x2c, 0x41, 0x3e,
  0x9c, 0xc8, 0x5d, 0x3e, 0xb8, 0x6a, 0x06, 0x3f, 0x59, 0xdc, 0x89, 0x3e,
  0x39, 0xd2, 0x0f, 0x3e, 0x18, 0x85, 0xd6, 0xbd, 0x7c, 0x8a, 0x8a, 0xbe,
  0x7c, 0x69, 0x91, 0x3d, 0x39, 0x43, 0x08, 0xbf, 0x8d, 0x7e, 0x60, 0xbe,
  0x3e, 0xc9, 0x2c, 0x3e, 0xd3, 0x30, 0xb9, 0x3e, 0xf8, 0xfe, 0xe0, 0xbe,
  0xb8, 0xab, 0x2f, 0xbe, 0xd4, 0x3c, 0x77, 0x3d, 0x59, 0x94, 0x68, 0x3e,
  0x9b, 0xcf, 0x27, 0x3f, 0x41, 0x24, 0x0e, 0x3f, 0xba, 0xfd, 0x3d, 0xbe,
  0x26, 0xbd, 0xbb, 0x3e, 0x27, 0x57, 0xd7, 0x3d, 0xd2, 0xeb, 0x92, 0x3e,
  0x46, 0x6d, 0x14, 0xbf, 0xbf, 0xf4, 0x95, 0x3e, 0x19, 0x41, 0xa7, 0x3e,
  0x99, 0x29, 0xba, 0xbe, 0x36, 0x6e, 0x64, 0xbe, 0xc2, 0xd5, 0x0b, 0xbc,
  0x4a, 0xc7, 0xb6, 0x3d, 0xa0, 0x2d, 0xeb, 0xbd, 0x45, 0x3a, 0x14, 0x3f,
  0x6e, 0x22, 0x69, 0xbe, 0x74, 0x73, 0xa7, 0x3e, 0x32, 0x75, 0x1f, 0x3f,
  0x20, 0x9a, 0xcc, 0x3e, 0x2d, 0xf4, 0xec, 0xbe, 0x2c, 0xb1, 0x97, 0xbd,
  0x51, 0x57, 0x89, 0x3e, 0xea, 0x57, 0x3d, 0xbe, 0x28, 0xdd, 0x06, 0x3f,
  0xeb, 0xd3, 0x62, 0x3e, 0x63, 0xfd, 0xfc, 0x3d, 0x5f, 0xfc, 0x4d, 0x3e,
  0xcf, 0xad, 0x7b, 0x3e, 0x8e, 0x91, 0x4c, 0x3d, 0xee, 0xdd, 0x50, 0x3e,
  0xba, 0x5f, 0x6c, 0xbd, 0xd3, 0xc5, 0xa8, 0x3e, 0x4f, 0x37, 0x34, 0xbe,
  0x97, 0x14, 0xcc, 0xbe, 0xf4, 0x72, 0x9b, 0x3e, 0x6f, 0x00, 0x5d, 0xbe,
  0x36, 0x2f, 0x31, 0x3f, 0x12, 0x2e, 0xe6, 0x3d, 0x1a, 0x62, 0xce, 0x3c,
  0x1e, 0x8f, 0x3d, 0x3e, 0x6d, 0x7b, 0x83, 0x3d, 0x60, 0xc6, 0xed, 0xbe,
  0x2a, 0xbc, 0x98, 0xbd, 0x2f, 0x75, 0x72, 0xbd, 0x7d, 0x34, 0xff, 0xbe,
  0xf2, 0xc0, 0x99, 0x3e, 0x8c, 0xff, 0xf9, 0x3e, 0x0e, 0x50, 0xef, 0x3d,
  0xd5, 0x6f, 0xf2, 0xbe, 0xee, 0xfe, 0xff, 0xff, 0x04, 0x00, 0x00, 0x00,
  0xc0, 0x00, 0x00, 0x00, 0x5b, 0xc2, 0x01, 0x3d, 0x46, 0x50, 0x20, 0xbd,
  0x30, 0x71, 0x1c, 0x3e, 0x05, 0xd7, 0x04, 0xbf, 0x95, 0xcb, 0x23, 0x3f,
  0xbc, 0xef, 0x69, 0xbe, 0x2b, 0x3c, 0x6a, 0xbe, 0x88, 0x4b, 0xec, 0x3e,
  0xf5, 0xb9, 0x18, 0xbf, 0x61, 0x25, 0x22, 0x3f, 0xc5, 0x89, 0xce, 0xbe,
  0x83, 0xb3, 0x90, 0x3e, 0x20, 0x6f, 0xa2, 0x3e, 0x4a, 0xc6, 0x6d, 0xbe,
  0xf9, 0xaf, 0xee, 0xbe, 0xa6, 0x47, 0x09, 0xbf, 0x6c, 0x79, 0xd0, 0x3b,
  0x17, 0x02, 0xb8, 0x3e, 0xdd, 0x72, 0x4a, 0xbf, 0xfb, 0xed, 0xc9, 0xbe,
  0xdc, 0x32, 0x98, 0xbe, 0x54, 0x9a, 0xd9, 0x3e, 0xba, 0xf7, 0xc6, 0x3d,
  0xa5, 0x1f, 0xf1, 0xbe, 0x1d, 0xcc, 0xf9, 0x3d, 0xeb, 0x80, 0xe0, 0x3e,
  0x67, 0xc8, 0xe1, 0x3e, 0x29, 0x08, 0x75, 0xbe, 0xa4, 0x67, 0xbf, 0xbe,
  0xb7, 0x2f, 0xfb, 0xbd, 0x6d, 0xa3, 0x2e, 0xbf, 0x0c, 0x65, 0xbc, 0x3e,
  0x8d, 0x2e, 0xa7, 0xbe, 0x3c, 0xbc, 0xe4, 0x3e, 0x1e, 0x00, 0x1b, 0x3e,
  0xae, 0xc4, 0x66, 0x3e, 0xf5, 0x7f, 0xa4, 0xbe, 0xa2, 0x29, 0xf6, 0xbe,
  0x5c, 0xa8, 0xde, 0xbd, 0xc7, 0x62, 0x30, 0x3f, 0x8a, 0x7e, 0x47, 0x3f,
  0x3e, 0xe0, 0xa2, 0x3d, 0x81, 0xae, 0x0b, 0x3f, 0x03, 0x2d, 0x01, 0xbf,
  0xd3, 0xb6, 0x03, 0x3f, 0x78, 0x1c, 0xe1, 0x3e, 0x3f, 0xef, 0x03, 0xbe,
  0x66, 0x6e, 0xe3, 0x3d, 0xba, 0xff, 0xff, 0xff, 0x04, 0x00, 0x00, 0x00,
  0x0c, 0x00, 0x00, 0x00, 0xc4, 0x0f, 0xa4, 0xbd, 0x3e, 0x74, 0xf1, 0xbb,
  0xde, 0x7e, 0x50, 0x3e, 0xd2, 0xff, 0xff, 0xff, 0x04, 0x00, 0x00, 0x00,
  0x20, 0x00, 0x00, 0x00, 0xcb, 0xdb, 0x4a, 0xbe, 0x69, 0x7e, 0x9a, 0xbd,
  0xce, 0xf0, 0x95, 0x3e, 0x14, 0x3b, 0x7b, 0x3e, 0xc8, 0x12, 0xe0, 0xbd,
  0xf8, 0xc4, 0x82, 0x3e, 0xdb, 0x77, 0xe3, 0xbd, 0x9e, 0xa6, 0x76, 0x3e,
  0x00, 0x00, 0x06, 0x00, 0x08, 0x00, 0x04, 0x00, 0x06, 0x00, 0x00, 0x00,
  0x04, 0x00, 0x00, 0x00, 0x40, 0x00, 0x00, 0x00, 0x2a, 0xaf, 0x1e, 0xbe,
  0x7e, 0xaf, 0xca, 0xbd, 0x39, 0x5d, 0x4c, 0x3e, 0x11, 0x4d, 0x7d, 0xbd,
  0xc3, 0x3c, 0x81, 0x3b, 0xdf, 0x88, 0xb3, 0xbd, 0xa4, 0x08, 0xfa, 0x3b,
  0x30, 0xdc, 0xa6, 0x3e, 0xb6, 0x44, 0x3b, 0x3e, 0xea, 0x73, 0x63, 0x3e,
  0x7b, 0x92, 0x48, 0x3e, 0x08, 0x9f, 0x2c, 0xbe, 0xb1, 0xdb, 0x70, 0x3e,
  0x7a, 0x67, 0xa6, 0x3e, 0x58, 0x62, 0xcc, 0x3d, 0xdc, 0x49, 0xcd, 0xbc,
  0x68, 0xf8, 0xff, 0xff, 0x6c, 0xf8, 0xff, 0xff, 0x0f, 0x00, 0x00, 0x00,
  0x4d, 0x4c, 0x49, 0x52, 0x20, 0x43, 0x6f, 0x6e, 0x76, 0x65, 0x72, 0x74,
  0x65, 0x64, 0x2e, 0x00, 0x01, 0x00, 0x00, 0x00, 0x14, 0x00, 0x00, 0x00,
  0x00, 0x00, 0x0e, 0x00, 0x18, 0x00, 0x14, 0x00, 0x10, 0x00, 0x0c, 0x00,
  0x08, 0x00, 0x04, 0x00, 0x0e, 0x00, 0x00, 0x00, 0x14, 0x00, 0x00, 0x00,
  0x1c, 0x00, 0x00, 0x00, 0x20, 0x01, 0x00, 0x00, 0x24, 0x01, 0x00, 0x00,
  0x28, 0x01, 0x00, 0x00, 0x04, 0x00, 0x00, 0x00, 0x6d, 0x61, 0x69, 0x6e,
  0x00, 0x00, 0x00, 0x00, 0x04, 0x00, 0x00, 0x00, 0xc8, 0x00, 0x00, 0x00,
  0x80, 0x00, 0x00, 0x00, 0x38, 0x00, 0x00, 0x00, 0x04, 0x00, 0x00, 0x00,
  0x9a, 0xff, 0xff, 0xff, 0x10, 0x00, 0x00, 0x00, 0x00, 0x00, 0x00, 0x08,
  0x0c, 0x00, 0x00, 0x00, 0x10, 0x00, 0x00, 0x00, 0xe8, 0xf8, 0xff, 0xff,
  0x01, 0x00, 0x00, 0x00, 0x0c, 0x00, 0x00, 0x00, 0x03, 0x00, 0x00, 0x00,
  0x0b, 0x00, 0x00, 0x00, 0x04, 0x00, 0x00, 0x00, 0x03, 0x00, 0x00, 0x00,
  0xca, 0xff, 0xff, 0xff, 0x10, 0x00, 0x00, 0x00, 0x00, 0x00, 0x00, 0x08,
  0x10, 0x00, 0x00, 0x00, 0x14, 0x00, 0x00, 0x00, 0x76, 0xff, 0xff, 0xff,
  0x00, 0x00, 0x00, 0x01, 0x01, 0x00, 0x00, 0x00, 0x0b, 0x00, 0x00, 0x00,
  0x03, 0x00, 0x00, 0x00, 0x0a, 0x00, 0x00, 0x00, 0x05, 0x00, 0x00, 0x00,
  0x01, 0x00, 0x00, 0x00, 0x00, 0x00, 0x0e, 0x00, 0x14, 0x00, 0x00, 0x00,
  0x10, 0x00, 0x0c, 0x00, 0x0b, 0x00, 0x04, 0x00, 0x0e, 0x00, 0x00, 0x00,
  0x10, 0x00, 0x00, 0x00, 0x00, 0x00, 0x00, 0x08, 0x10, 0x00, 0x00, 0x00,
  0x14, 0x00, 0x00, 0x00, 0xba, 0xff, 0xff, 0xff, 0x00, 0x00, 0x00, 0x01,
  0x01, 0x00, 0x00, 0x00, 0x0a, 0x00, 0x00, 0x00, 0x03, 0x00, 0x00, 0x00,
  0x09, 0x00, 0x00, 0x00, 0x06, 0x00, 0x00, 0x00, 0x02, 0x00, 0x00, 0x00,
  0x00, 0x00, 0x0e, 0x00, 0x16, 0x00, 0x00, 0x00, 0x10, 0x00, 0x0c, 0x00,
  0x0b, 0x00, 0x04, 0x00, 0x0e, 0x00, 0x00, 0x00, 0x18, 0x00, 0x00, 0x00,
  0x00, 0x00, 0x00, 0x08, 0x18, 0x00, 0x00, 0x00, 0x1c, 0x00, 0x00, 0x00,
  0x00, 0x00, 0x06, 0x00, 0x08, 0x00, 0x07, 0x00, 0x06, 0x00, 0x00, 0x00,
  0x00, 0x00, 0x00, 0x01, 0x01, 0x00, 0x00, 0x00, 0x09, 0x00, 0x00, 0x00,
  0x03, 0x00, 0x00, 0x00, 0x00, 0x00, 0x00, 0x00, 0x07, 0x00, 0x00, 0x00,
  0x08, 0x00, 0x00, 0x00, 0x01, 0x00, 0x00, 0x00, 0x0c, 0x00, 0x00, 0x00,
  0x01, 0x00, 0x00, 0x00, 0x00, 0x00, 0x00, 0x00, 0x0d, 0x00, 0x00, 0x00,
  0xfc, 0x05, 0x00, 0x00, 0x64, 0x05, 0x00, 0x00, 0xd0, 0x04, 0x00, 0x00,
  0x7c, 0x04, 0x00, 0x00, 0x24, 0x04, 0x00, 0x00, 0xc8, 0x03, 0x00, 0x00,
  0x70, 0x03, 0x00, 0x00, 0x14, 0x03, 0x00, 0x00, 0x94, 0x02, 0x00, 0x00,
  0xd4, 0x01, 0x00, 0x00, 0x20, 0x01, 0x00, 0x00, 0x60, 0x00, 0x00, 0x00,
  0x04, 0x00, 0x00, 0x00, 0x4e, 0xfa, 0xff, 0xff, 0x00, 0x00, 0x00, 0x01,
  0x14, 0x00, 0x00, 0x00, 0x1c, 0x00, 0x00, 0x00, 0x1c, 0x00, 0x00, 0x00,
  0x0d, 0x00, 0x00, 0x00, 0x34, 0x00, 0x00, 0x00, 0x02, 0x00, 0x00, 0x00,
  0xff, 0xff, 0xff, 0xff, 0x03, 0x00, 0x00, 0x00, 0x38, 0xfa, 0xff, 0xff,
  0x1b, 0x00, 0x00, 0x00, 0x53, 0x74, 0x61, 0x74, 0x65, 0x66, 0x75, 0x6c,
  0x50, 0x61, 0x72, 0x74, 0x69, 0x74, 0x69, 0x6f, 0x6e, 0x65, 0x64, 0x43,
  0x61, 0x6c, 0x6c, 0x5f, 0x31, 0x3a, 0x30, 0x00, 0x02, 0x00, 0x00, 0x00,
  0x01, 0x00, 0x00, 0x00, 0x03, 0x00, 0x00, 0x00, 0xa6, 0xfa, 0xff, 0xff,
  0x00, 0x00, 0x00, 0x01, 0x14, 0x00, 0x00, 0x00, 0x1c, 0x00, 0x00, 0x00,
  0x1c, 0x00, 0x00, 0x00, 0x0c, 0x00, 0x00, 0x00, 0x98, 0x00, 0x00, 0x00,
  0x02, 0x00, 0x00, 0x00, 0xff, 0xff, 0xff, 0xff, 0x10, 0x00, 0x00, 0x00,
  0x90, 0xfa, 0xff, 0xff, 0x7c, 0x00, 0x00, 0x00, 0x53, 0x65, 0x6e, 0x73,
  0x65, 0x77, 0x61, 0x72, 0x65, 0x41, 0x75, 0x74, 0x6f, 0x65, 0x6e, 0x63,
  0x6f, 0x64, 0x65, 0x72, 0x5f, 0x31, 0x2f, 0x64, 0x65, 0x63, 0x6f, 0x64,
  0x65, 0x72, 0x5f, 0x31, 0x5f, 0x31, 0x2f, 0x4d, 0x61, 0x74, 0x4d, 0x75,
  0x6c, 0x3b, 0x53, 0x65, 0x6e, 0x73, 0x65, 0x77, 0x61, 0x72, 0x65, 0x41,
  0x75, 0x74, 0x6f, 0x65, 0x6e, 0x63, 0x6f, 0x64, 0x65, 0x72, 0x5f, 0x31,
  0x2f, 0x64, 0x65, 0x63, 0x6f, 0x64, 0x65, 0x72, 0x5f, 0x31, 0x5f, 0x31,
  0x2f, 0x52, 0x65, 0x6c, 0x75, 0x3b, 0x53, 0x65, 0x6e, 0x73, 0x65, 0x77,
  0x61, 0x72, 0x65, 0x41, 0x75, 0x74, 0x6f, 0x65, 0x6e, 0x63, 0x6f, 0x64,
  0x65, 0x72, 0x5f, 0x31, 0x2f, 0x64, 0x65, 0x63, 0x6f, 0x64, 0x65, 0x72,
  0x5f, 0x31, 0x5f, 0x31, 0x2f, 0x42, 0x69, 0x61, 0x73, 0x41, 0x64, 0x64,
  0x00, 0x00, 0x00, 0x00, 0x02, 0x00, 0x00, 0x00, 0x01, 0x00, 0x00, 0x00,
  0x10, 0x00, 0x00, 0x00, 0x62, 0xfb, 0xff, 0xff, 0x00, 0x00, 0x00, 0x01,
  0x14, 0x00, 0x00, 0x00, 0x1c, 0x00, 0x00, 0x00, 0x1c, 0x00, 0x00, 0x00,
  0x0b, 0x00, 0x00, 0x00, 0x8c, 0x00, 0x00, 0x00, 0x02, 0x00, 0x00, 0x00,
  0xff, 0xff, 0xff, 0xff, 0x08, 0x00, 0x00, 0x00, 0x4c, 0xfb, 0xff, 0xff,
  0x73, 0x00, 0x00, 0x00, 0x53, 0x65, 0x6e, 0x73, 0x65, 0x77, 0x61, 0x72,
  0x65, 0x41, 0x75, 0x74, 0x6f, 0x65, 0x6e, 0x63, 0x6f, 0x64, 0x65, 0x72,
  0x5f, 0x31, 0x2f, 0x6c, 0x61, 0x74, 0x65, 0x6e, 0x74, 0x5f, 0x31, 0x2f,
  0x4d, 0x61, 0x74, 0x4d, 0x75, 0x6c, 0x3b, 0x53, 0x65, 0x6e, 0x73, 0x65,
  0x77, 0x61, 0x72, 0x65, 0x41, 0x75, 0x74, 0x6f, 0x65, 0x6e, 0x63, 0x6f,
  0x64, 0x65, 0x72, 0x5f, 0x31, 0x2f, 0x6c, 0x61, 0x74, 0x65, 0x6e, 0x74,
  0x5f, 0x31, 0x2f, 0x52, 0x65, 0x6c, 0x75, 0x3b, 0x53, 0x65, 0x6e, 0x73,
  0x65, 0x77, 0x61, 0x72, 0x65, 0x41, 0x75, 0x74, 0x6f, 0x65, 0x6e, 0x63,
  0x6f, 0x64, 0x65, 0x72, 0x5f, 0x31, 0x2f, 0x6c, 0x61, 0x74, 0x65, 0x6e,
  0x74, 0x5f, 0x31, 0x2f, 0x42, 0x69, 0x61, 0x73, 0x41, 0x64, 0x64, 0x00,
  0x02, 0x00, 0x00, 0x00, 0x01, 0x00, 0x00, 0x00, 0x08, 0x00, 0x00, 0x00,
  0x12, 0xfc, 0xff, 0xff, 0x00, 0x00, 0x00, 0x01, 0x14, 0x00, 0x00, 0x00,
  0x1c, 0x00, 0x00, 0x00, 0x1c, 0x00, 0x00, 0x00, 0x0a, 0x00, 0x00, 0x00,
  0x98, 0x00, 0x00, 0x00, 0x02, 0x00, 0x00, 0x00, 0xff, 0xff, 0xff, 0xff,
  0x10, 0x00, 0x00, 0x00, 0xfc, 0xfb, 0xff, 0xff, 0x7c, 0x00, 0x00, 0x00,
  0x53, 0x65, 0x6e, 0x73, 0x65, 0x77, 0x61, 0x72, 0x65, 0x41, 0x75, 0x74,
  0x6f, 0x65, 0x6e, 0x63, 0x6f, 0x64, 0x65, 0x72, 0x5f, 0x31, 0x2f, 0x65,
  0x6e, 0x63, 0x6f, 0x64, 0x65, 0x72, 0x5f, 0x31, 0x5f, 0x31, 0x2f, 0x4d,
  0x61, 0x74, 0x4d, 0x75, 0x6c, 0x3b, 0x53, 0x65, 0x6e, 0x73, 0x65, 0x77,
  0x61, 0x72, 0x65, 0x41, 0x75, 0x74, 0x6f, 0x65, 0x6e, 0x63, 0x6f, 0x64,
  0x65, 0x72, 0x5f, 0x31, 0x2f, 0x65, 0x6e, 0x63, 0x6f, 0x64, 0x65, 0x72,
  0x5f, 0x31, 0x5f, 0x31, 0x2f, 0x52, 0x65, 0x6c, 0x75, 0x3b, 0x53, 0x65,
  0x6e, 0x73, 0x65, 0x77, 0x61, 0x72, 0x65, 0x41, 0x75, 0x74, 0x6f, 0x65,
  0x6e, 0x63, 0x6f, 0x64, 0x65, 0x72, 0x5f, 0x31, 0x2f, 0x65, 0x6e, 0x63,
  0x6f, 0x64, 0x65, 0x72, 0x5f, 0x31, 0x5f, 0x31, 0x2f, 0x42, 0x69, 0x61,
  0x73, 0x41, 0x64, 0x64, 0x00, 0x00, 0x00, 0x00, 0x02, 0x00, 0x00, 0x00,
  0x01, 0x00, 0x00, 0x00, 0x10, 0x00, 0x00, 0x00, 0x62, 0xfd, 0xff, 0xff,
  0x00, 0x00, 0x00, 0x01, 0x10, 0x00, 0x00, 0x00, 0x10, 0x00, 0x00, 0x00,
  0x09, 0x00, 0x00, 0x00, 0x60, 0x00, 0x00, 0x00, 0xa8, 0xfc, 0xff, 0xff,
  0x52, 0x00, 0x00, 0x00, 0x53, 0x65, 0x6e, 0x73, 0x65, 0x77, 0x61, 0x72,
  0x65, 0x41, 0x75, 0x74, 0x6f, 0x65, 0x6e, 0x63, 0x6f, 0x64, 0x65, 0x72,
  0x5f, 0x31, 0x2f, 0x65, 0x6e, 0x63, 0x6f, 0x64, 0x65, 0x72, 0x5f, 0x31,
  0x5f, 0x31, 0x2f, 0x52, 0x65, 0x6c, 0x75, 0x3b, 0x53, 0x65, 0x6e, 0x73,
  0x65, 0x77, 0x61, 0x72, 0x65, 0x41, 0x75, 0x74, 0x6f, 0x65, 0x6e, 0x63,
  0x6f, 0x64, 0x65, 0x72, 0x5f, 0x31, 0x2f, 0x65, 0x6e, 0x63, 0x6f, 0x64,
  0x65, 0x72, 0x5f, 0x31, 0x5f, 0x31, 0x2f, 0x42, 0x69, 0x61, 0x73, 0x41,
  0x64, 0x64, 0x00, 0x00, 0x01, 0x00, 0x00, 0x00, 0x10, 0x00, 0x00, 0x00,
  0xde, 0xfd, 0xff, 0xff, 0x00, 0x00, 0x00, 0x01, 0x10, 0x00, 0x00, 0x00,
  0x10, 0x00, 0x00, 0x00, 0x08, 0x00, 0x00, 0x00, 0x38, 0x00, 0x00, 0x00,
  0x24, 0xfd, 0xff, 0xff, 0x29, 0x00, 0x00, 0x00, 0x53, 0x65, 0x6e, 0x73,
  0x65, 0x77, 0x61, 0x72, 0x65, 0x41, 0x75, 0x74, 0x6f, 0x65, 0x6e, 0x63,
  0x6f, 0x64, 0x65, 0x72, 0x5f, 0x31, 0x2f, 0x65, 0x6e, 0x63, 0x6f, 0x64,
  0x65, 0x72, 0x5f, 0x31, 0x5f, 0x31, 0x2f, 0x4d, 0x61, 0x74, 0x4d, 0x75,
  0x6c, 0x00, 0x00, 0x00, 0x02, 0x00, 0x00, 0x00, 0x10, 0x00, 0x00, 0x00,
  0x03, 0x00, 0x00, 0x00, 0x36, 0xfe, 0xff, 0xff, 0x00, 0x00, 0x00, 0x01,
  0x10, 0x00, 0x00, 0x00, 0x10, 0x00, 0x00, 0x00, 0x07, 0x00, 0x00, 0x00,
  0x34, 0x00, 0x00, 0x00, 0x7c, 0xfd, 0xff, 0xff, 0x26, 0x00, 0x00, 0x00,
  0x53, 0x65, 0x6e, 0x73, 0x65, 0x77, 0x61, 0x72, 0x65, 0x41, 0x75, 0x74,
  0x6f, 0x65, 0x6e, 0x63, 0x6f, 0x64, 0x65, 0x72, 0x5f, 0x31, 0x2f, 0x6c,
  0x61, 0x74, 0x65, 0x6e, 0x74, 0x5f, 0x31, 0x2f, 0x4d, 0x61, 0x74, 0x4d,
  0x75, 0x6c, 0x00, 0x00, 0x02, 0x00, 0x00, 0x00, 0x08, 0x00, 0x00, 0x00,
  0x10, 0x00, 0x00, 0x00, 0x8a, 0xfe, 0xff, 0xff, 0x00, 0x00, 0x00, 0x01,
  0x10, 0x00, 0x00, 0x00, 0x10, 0x00, 0x00, 0x00, 0x06, 0x00, 0x00, 0x00,
  0x38, 0x00, 0x00, 0x00, 0xd0, 0xfd, 0xff, 0xff, 0x29, 0x00, 0x00, 0x00,
  0x53, 0x65, 0x6e, 0x73, 0x65, 0x77, 0x61, 0x72, 0x65, 0x41, 0x75, 0x74,
  0x6f, 0x65, 0x6e, 0x63, 0x6f, 0x64, 0x65, 0x72, 0x5f, 0x31, 0x2f, 0x64,
  0x65, 0x63, 0x6f, 0x64, 0x65, 0x72, 0x5f, 0x31, 0x5f, 0x31, 0x2f, 0x4d,
  0x61, 0x74, 0x4d, 0x75, 0x6c, 0x00, 0x00, 0x00, 0x02, 0x00, 0x00, 0x00,
  0x10, 0x00, 0x00, 0x00, 0x08, 0x00, 0x00, 0x00, 0xe2, 0xfe, 0xff, 0xff,
  0x00, 0x00, 0x00, 0x01, 0x10, 0x00, 0x00, 0x00, 0x10, 0x00, 0x00, 0x00,
  0x05, 0x00, 0x00, 0x00, 0x34, 0x00, 0x00, 0x00, 0x28, 0xfe, 0xff, 0xff,
  0x26, 0x00, 0x00, 0x00, 0x53, 0x65, 0x6e, 0x73, 0x65, 0x77, 0x61, 0x72,
  0x65, 0x41, 0x75, 0x74, 0x6f, 0x65, 0x6e, 0x63, 0x6f, 0x64, 0x65, 0x72,
  0x5f, 0x31, 0x2f, 0x6f, 0x75, 0x74, 0x70, 0x75, 0x74, 0x5f, 0x31, 0x2f,
  0x4d, 0x61, 0x74, 0x4d, 0x75, 0x6c, 0x00, 0x00, 0x02, 0x00, 0x00, 0x00,
  0x03, 0x00, 0x00, 0x00, 0x10, 0x00, 0x00, 0x00, 0x36, 0xff, 0xff, 0xff,
  0x00, 0x00, 0x00, 0x01, 0x10, 0x00, 0x00, 0x00, 0x10, 0x00, 0x00, 0x00,
  0x04, 0x00, 0x00, 0x00, 0x34, 0x00, 0x00, 0x00, 0x7c, 0xfe, 0xff, 0xff,
  0x27, 0x00, 0x00, 0x00, 0x53, 0x65, 0x6e, 0x73, 0x65, 0x77, 0x61, 0x72,
  0x65, 0x41, 0x75, 0x74, 0x6f, 0x65, 0x6e, 0x63, 0x6f, 0x64, 0x65, 0x72,
  0x5f, 0x31, 0x2f, 0x6f, 0x75, 0x74, 0x70, 0x75, 0x74, 0x5f, 0x31, 0x2f,
  0x42, 0x69, 0x61, 0x73, 0x41, 0x64, 0x64, 0x00, 0x01, 0x00, 0x00, 0x00,
  0x03, 0x00, 0x00, 0x00, 0x86, 0xff, 0xff, 0xff, 0x00, 0x00, 0x00, 0x01,
  0x10, 0x00, 0x00, 0x00, 0x10, 0x00, 0x00, 0x00, 0x03, 0x00, 0x00, 0x00,
  0x5c, 0x00, 0x00, 0x00, 0xcc, 0xfe, 0xff, 0xff, 0x4c, 0x00, 0x00, 0x00,
  0x53, 0x65, 0x6e, 0x73, 0x65, 0x77, 0x61, 0x72, 0x65, 0x41, 0x75, 0x74,
  0x6f, 0x65, 0x6e, 0x63, 0x6f, 0x64, 0x65, 0x72, 0x5f, 0x31, 0x2f, 0x6c,
  0x61, 0x74, 0x65, 0x6e, 0x74, 0x5f, 0x31, 0x2f, 0x52, 0x65, 0x6c, 0x75,
  0x3b, 0x53, 0x65, 0x6e, 0x73, 0x65, 0x77, 0x61, 0x72, 0x65, 0x41, 0x75,
  0x74, 0x6f, 0x65, 0x6e, 0x63, 0x6f, 0x64, 0x65, 0x72, 0x5f, 0x31, 0x2f,
  0x6c, 0x61, 0x74, 0x65, 0x6e, 0x74, 0x5f, 0x31, 0x2f, 0x42, 0x69, 0x61,
  0x73, 0x41, 0x64, 0x64, 0x00, 0x00, 0x00, 0x00, 0x01, 0x00, 0x00, 0x00,
  0x08, 0x00, 0x00, 0x00, 0x00, 0x00, 0x16, 0x00, 0x18, 0x00, 0x14, 0x00,
  0x00, 0x00, 0x10, 0x00, 0x0c, 0x00, 0x08, 0x00, 0x00, 0x00, 0x00, 0x00,
  0x00, 0x00, 0x07, 0x00, 0x16, 0x00, 0x00, 0x00, 0x00, 0x00, 0x00, 0x01,
  0x10, 0x00, 0x00, 0x00, 0x10, 0x00, 0x00, 0x00, 0x02, 0x00, 0x00, 0x00,
  0x60, 0x00, 0x00, 0x00, 0x5c, 0xff, 0xff, 0xff, 0x52, 0x00, 0x00, 0x00,
  0x53, 0x65, 0x6e, 0x73, 0x65, 0x77, 0x61, 0x72, 0x65, 0x41, 0x75, 0x74,
  0x6f, 0x65, 0x6e, 0x63, 0x6f, 0x64, 0x65, 0x72, 0x5f, 0x31, 0x2f, 0x64,
  0x65, 0x63, 0x6f, 0x64, 0x65, 0x72, 0x5f, 0x31, 0x5f, 0x31, 0x2f, 0x52,
  0x65, 0x6c, 0x75, 0x3b, 0x53, 0x65, 0x6e, 0x73, 0x65, 0x77, 0x61, 0x72,
  0x65, 0x41, 0x75, 0x74, 0x6f, 0x65, 0x6e, 0x63, 0x6f, 0x64, 0x65, 0x72,
  0x5f, 0x31, 0x2f, 0x64, 0x65, 0x63, 0x6f, 0x64, 0x65, 0x72, 0x5f, 0x31,
  0x5f, 0x31, 0x2f, 0x42, 0x69, 0x61, 0x73, 0x41, 0x64, 0x64, 0x00, 0x00,
  0x01, 0x00, 0x00, 0x00, 0x10, 0x00, 0x00, 0x00, 0x00, 0x00, 0x16, 0x00,
  0x1c, 0x00, 0x18, 0x00, 0x00, 0x00, 0x14, 0x00, 0x10, 0x00, 0x0c, 0x00,
  0x00, 0x00, 0x00, 0x00, 0x08, 0x00, 0x07, 0x00, 0x16, 0x00, 0x00, 0x00,
  0x00, 0x00, 0x00, 0x01, 0x14, 0x00, 0x00, 0x00, 0x20, 0x00, 0x00, 0x00,
  0x20, 0x00, 0x00, 0x00, 0x01, 0x00, 0x00, 0x00, 0x3c, 0x00, 0x00, 0x00,
  0x02, 0x00, 0x00, 0x00, 0xff, 0xff, 0xff, 0xff, 0x03, 0x00, 0x00, 0x00,
  0x04, 0x00, 0x04, 0x00, 0x04, 0x00, 0x00, 0x00, 0x1e, 0x00, 0x00, 0x00,
  0x73, 0x65, 0x72, 0x76, 0x69, 0x6e, 0x67, 0x5f, 0x64, 0x65, 0x66, 0x61,
  0x75, 0x6c, 0x74, 0x5f, 0x6b, 0x65, 0x72, 0x61, 0x73, 0x5f, 0x74, 0x65,
  0x6e, 0x73, 0x6f, 0x72, 0x3a, 0x30, 0x00, 0x00, 0x02, 0x00, 0x00, 0x00,
  0x01, 0x00, 0x00, 0x00, 0x03, 0x00, 0x00, 0x00, 0x01, 0x00, 0x00, 0x00,
  0x10, 0x00, 0x00, 0x00, 0x0c, 0x00, 0x0c, 0x00, 0x0b, 0x00, 0x00, 0x00,
  0x00, 0x00, 0x04, 0x00, 0x0c, 0x00, 0x00, 0x00, 0x09, 0x00, 0x00, 0x00,
  0x00, 0x00, 0x00, 0x09
};
unsigned int senseware_model_tflite_len = 4216;

#endif /* SENSEWARE_MODEL_DATA_H */
