/* Auto-generated by train_autoencoder.py — do not edit manually. */
#ifndef SENSEWARE_MODEL_DATA_H
#define SENSEWARE_MODEL_DATA_H

unsigned char senseware_model_tflite[] = {
  0x1c, 0x00, 0x00, 0x00, 0x54, 0x46, 0x4c, 0x33, 0x14, 0x00, 0x20, 0x00,
  0x1c, 0x00, 0x18, 0x00, 0x14, 0x00, 0x10, 0x00, 0x0c, 0x00, 0x00, 0x00,
  0x08, 0x00, 0x04, 0x00, 0x14, 0x00, 0x00, 0x00, 0x1c, 0x00, 0x00, 0x00,
  0x98, 0x00, 0x00, 0x00, 0xf0, 0x00, 0x00, 0x00, 0x64, 0x08, 0x00, 0x00,
  0x74, 0x08, 0x00, 0x00, 0x24, 0x10, 0x00, 0x00, 0x03, 0x00, 0x00, 0x00,
  0x01, 0x00, 0x00, 0x00, 0x10, 0x00, 0x00, 0x00, 0x00, 0x00, 0x0a, 0x00,
  0x10, 0x00, 0x0c, 0x00, 0x08, 0x00, 0x04, 0x00, 0x0a, 0x00, 0x00, 0x00,
  0x0c, 0x00, 0x00, 0x00, 0x1c, 0x00, 0x00, 0x00, 0x3c, 0x00, 0x00, 0x00,
  0x0f, 0x00, 0x00, 0x00, 0x73, 0x65, 0x72, 0x76, 0x69, 0x6e, 0x67, 0x5f,
  0x64, 0x65, 0x66, 0x61, 0x75, 0x6c, 0x74, 0x00, 0x01, 0x00, 0x00, 0x00,
  0x04, 0x00, 0x00, 0x00, 0x90, 0xff, 0xff, 0xff, 0x0c, 0x00, 0x00, 0x00,
  0x04, 0x00, 0x00, 0x00, 0x08, 0x00, 0x00, 0x00, 0x6f, 0x75, 0x74, 0x70,
  0x75, 0x74, 0x5f, 0x30, 0x00, 0x00, 0x00, 0x00, 0x01, 0x00, 0x00, 0x00,
  0x04, 0x00, 0x00, 0x00, 0x6a, 0xf8, 0xff, 0xff, 0x04, 0x00, 0x00, 0x00,
  0x0c, 0x00, 0x00, 0x00, 0x6b, 0x65, 0x72, 0x61, 0x73, 0x5f, 0x74, 0x65,
  0x6e, 0x73, 0x6f, 0x72, 0x00, 0x00, 0x00, 0x00, 0x02, 0x00, 0x00, 0x00,
  0x34, 0x00, 0x00, 0x00, 0x04, 0x00, 0x00, 0x00, 0xdc, 0xff, 0xff, 0xff,
  0x0f, 0x00, 0x00, 0x00, 0x04, 0x00, 0x00, 0x00, 0x13, 0x00, 0x00, 0x00,
  0x43, 0x4f, 0x4e, 0x56, 0x45, 0x52, 0x53, 0x49, 0x4f, 0x4e, 0x5f, 0x4d,
  0x45, 0x54, 0x41, 0x44, 0x41, 0x54, 0x41, 0x00, 0x08, 0x00, 0x0c, 0x00,
  0x08, 0x00, 0x04, 0x00, 0x08, 0x00, 0x00, 0x00, 0x0e, 0x00, 0x00, 0x00,
  0x04, 0x00, 0x00, 0x00, 0x13, 0x00, 0x00, 0x00, 0x6d, 0x69, 0x6e, 0x5f,
  0x72, 0x75, 0x6e, 0x74, 0x69, 0x6d, 0x65, 0x5f, 0x76, 0x65, 0x72, 0x73,
  0x69, 0x6f, 0x6e, 0x00, 0x10, 0x00, 0x00, 0x00, 0x70, 0x07, 0x00, 0x00,
  0x68, 0x07, 0x00, 0x00, 0x18, 0x07, 0x00, 0x00, 0xe0, 0x06, 0x00, 0x00,
  0xc4, 0x06, 0x00, 0x00, 0xf4, 0x05, 0x00, 0x00, 0xe4, 0x03, 0x00, 0x00,
  0xd4, 0x01, 0x00, 0x00, 0x04, 0x01, 0x00, 0x00, 0xb4, 0x00, 0x00, 0x00,
  0xac, 0x00, 0x00, 0x00, 0xa4, 0x00, 0x00, 0x00, 0x9c, 0x00, 0x00, 0x00,
  0x94, 0x00, 0x00, 0x00, 0x74, 0x00, 0x00, 0x00, 0x04, 0x00, 0x00, 0x00,
  0x26, 0xf9, 0xff, 0xff, 0x04, 0x00, 0x00, 0x00, 0x60, 0x00, 0x00, 0x00,
  0x10, 0x00, 0x00, 0x00, 0x00, 0x00, 0x00, 0x00, 0x08, 0x00, 0x0e, 0x00,
  0x08, 0x00, 0x04, 0x00, 0x08, 0x00, 0x00, 0x00, 0x10, 0x00, 0x00, 0x00,
  0x24, 0x00, 0x00, 0x00, 0x00, 0x00, 0x06, 0x00, 0x08, 0x00, 0x04, 0x00,
  0x06, 0x00, 0x00, 0x00, 0x04, 0x00, 0x00, 0x00, 0x00, 0x00, 0x00, 0x00,
  0x0c, 0x00, 0x18, 0x00, 0x14, 0x00, 0x10, 0x00, 0x0c, 0x00, 0x04, 0x00,
  0x0c, 0x00, 0x00, 0x00, 0xcd, 0x98, 0xa3, 0x75, 0x1a, 0x14, 0xd0, 0xc4,
  0x02, 0x00, 0x00, 0x00, 0x02, 0x00, 0x00, 0x00, 0x04, 0x00, 0x00, 0x00,
  0x06, 0x00, 0x00, 0x00, 0x32, 0x2e, 0x32, 0x31, 0x2e, 0x30, 0x00, 0x00,
  0x92, 0xf9, 0xff, 0xff, 0x04, 0x00, 0x00, 0x00, 0x10, 0x00, 0x00, 0x00,
  0x31, 0x2e, 0x35, 0x2e, 0x30, 0x00, 0x00, 0x00, 0x00, 0x00, 0x00, 0x00,
  0x00, 0x00, 0x00, 0x00, 0xc4, 0xf1, 0xff, 0xff, 0xc8, 0xf1, 0xff, 0xff,
  0xcc, 0xf1, 0xff, 0xff, 0xd0, 0xf1, 0xff, 0xff, 0xbe, 0xf9, 0xff, 0xff,
  0x04, 0x00, 0x00, 0x00, 0x40, 0x00, 0x00, 0x00, 0xa4, 0x22, 0xaa, 0x3e,
  0xa7, 0x6e, 0x3f, 0x3d, 0x7b, 0xa8, 0x4b, 0x3d, 0x7c, 0xc8, 0xc3, 0xbc,
  0xa3, 0xf5, 0x01, 0x3e, 0x10, 0x3d, 0x23, 0x3e, 0x3b, 0x92, 0xbe, 0xbc,
  0xa5, 0xdb, 0x7f, 0x3e, 0x38, 0x64, 0xac, 0x3d, 0x63, 0x6e, 0xfa, 0x3d,
  0xf4, 0xf2, 0x5e, 0x3e, 0x2a, 0x19, 0x02, 0xbd, 0xc3, 0xd1, 0xf5, 0x3d,
  0x90, 0xeb, 0x9f, 0xbb, 0x95, 0x86, 0xca, 0x3d, 0xb5, 0x59, 0xea, 0x3d,
  0x0a, 0xfa, 0xff, 0xff, 0x04, 0x00, 0x00, 0x00, 0xc0, 0x00, 0x00, 0x00,
  0xac, 0x65, 0xb8, 0xbd, 0x8c, 0xce, 0x61, 0xbd, 0xff, 0x4c, 0x16, 0x3f,
  0x28, 0x1e, 0x3d, 0x3e, 0x2b, 0xd4, 0xf7, 0x3e, 0x0a, 0xcd, 0x07, 0xbf,
  0xe6, 0x4c, 0x05, 0xbf, 0xe7, 0x5f, 0xfe, 0xbe, 0xfe, 0x73, 0xb9, 0x3e,
  0xaa, 0x0c, 0xf1, 0x3e, 0x52, 0x74, 0xa2, 0xbd, 0xde, 0xae, 0x53, 0x3d,
  0xde, 0x9b, 0x1c, 0xbe, 0x08, 0x8f, 0xa2, 0xbe, 0x57, 0x75, 0x0b, 0xbf,
  0x2d, 0xac, 0x08, 0x3f, 0x3e, 0x9d, 0xab, 0x3e, 0xf9, 0x6b, 0xaa, 0xbe,
  0x12, 0x01, 0xda, 0x3e, 0xd5, 0xc1, 0xd6, 0xbe, 0x9b, 0x1c, 0xd2, 0xbe,
  0x20, 0x13, 0x9a, 0x3e, 0xf0, 0xc4, 0x93, 0xbe, 0x09, 0x61, 0x37, 0x3f,
  0x8a, 0x50, 0xe5, 0x3e, 0x02, 0xa5, 0x05, 0xbf, 0x94, 0xe9, 0xf0, 0xbe,
  0xe0, 0x68, 0xc9, 0x3d, 0x75, 0xc8, 0x00, 0x3f, 0x53, 0x16, 0x89, 0x3e,
  0xdc, 0x16, 0x40, 0x3e, 0x56, 0x6a, 0xfb, 0x3e, 0x9e, 0x22, 0x1a, 0x3d,
  0x90, 0xea, 0xa9, 0xbd, 0xbe, 0x2b, 0xac, 0xbe, 0xa9, 0x50, 0x22, 0xbe,
  0x98, 0xd5, 0x08, 0xbf, 0x87, 0x61, 0x1f, 0xbf, 0x4f, 0x2a, 0xa7, 0xbe,
  0xd2, 0xd3, 0x05, 0xbf, 0x82, 0xeb, 0x4d, 0x3e, 0x7d, 0xc4, 0x10, 0x39,
  0xdc, 0x0c, 0x06, 0x3e, 0xc6, 0x2f, 0xf8, 0xbd, 0x8d, 0x99, 0xa3, 0xbe,
  0x30, 0x28, 0x14, 0x3d, 0xf6, 0x6d, 0xa9, 0x3e, 0x6b, 0xb7, 0x4a, 0x3e,
  0xd6, 0xfa, 0xff, 0xff, 0x04, 0x00, 0x00, 0x00, 0x00, 0x02, 0x00, 0x00,
  0xc8, 0x21, 0xbb, 0x3e, 0x2c, 0xd0, 0x9a, 0xbe, 0x0a, 0x29, 0xd4, 0xbe,
  0x1c, 0xe9, 0xdc, 0x3e, 0x0a, 0x3b, 0xd3, 0xbe, 0x51, 0x47, 0x69, 0x3e,
  0x59, 0x7d, 0xc2, 0xbe, 0xb9, 0x39, 0x57, 0x3b, 0x3f, 0x7f, 0x5d, 0x3e,
  0x73, 0x28, 0x76, 0xbd, 0x78, 0xc7, 0xed, 0x3d, 0x5d, 0x56, 0x1c, 0xbe,
  0x69, 0xac, 0xb9, 0x3e, 0xf7, 0xc4, 0x11, 0x3f, 0x02, 0xd2, 0xac, 0xbe,
  0xbc, 0xe5, 0x90, 0xbe, 0x42, 0x2d, 0x84, 0xbe, 0x74, 0x96, 0x9f, 0xbe,
  0x5e, 0xd9, 0x98, 0x3e, 0xda, 0x4d, 0xd7, 0xbe, 0xa4, 0xd8, 0xcf, 0xbe,
  0x6c, 0xb9, 0x9b, 0xbe, 0xdc, 0x53, 0xca, 0xbe, 0xa5, 0xe1, 0xc3, 0x3d,
  0xff, 0xff, 0xb9, 0x3e, 0xe8, 0x6e, 0x82, 0xbe, 0x98, 0x8e, 0x9d, 0xbe,
  0xf1, 0xf4, 0x5b, 0xbc, 0xc1, 0x17, 0xba, 0xbe, 0xd4, 0x0b, 0x90, 0x3e,
  0x10, 0x27, 0x15, 0x3e, 0x49, 0x33, 0xec, 0xbe, 0xc7, 0x67, 0xb2, 0xbe,
  0x81, 0xf7, 0x8c, 0x3e, 0xc4, 0x2b, 0x59, 0xbe, 0x10, 0xfa, 0x6f, 0xbe,
  0x06, 0xb8, 0x9c, 0x3e, 0xbc, 0xbc, 0x86, 0x3e, 0x1b, 0xb3, 0xf7, 0x3b,
  0x26, 0xb8, 0x48, 0xbc, 0x9b, 0xd7, 0x16, 0x3f, 0xe7, 0x83, 0xa2, 0xbd,
  0xae, 0x4c, 0x85, 0x3e, 0x7b, 0x22, 0xc7, 0xbd, 0x48, 0xfe, 0xbe, 0x3e,
  0x25, 0xcf, 0x8d, 0xbe, 0x5a, 0x39, 0xde, 0x3e, 0x5d, 0x01, 0x45, 0xbe,
  0x30, 0xe1, 0x45, 0xbe, 0xc0, 0x0e, 0x9f, 0xbc, 0xac, 0xea, 0xf3, 0xbe,
  0x7c, 0x24, 0xd6, 0x3e, 0xf8, 0x44, 0x43, 0xbe, 0xc0, 0x3c, 0x80, 0x3d,
  0xfc, 0xe4, 0xe9, 0xbe, 0x48, 0x18, 0x08, 0x3e, 0xa8, 0x9c, 0xf9, 0x3e,
  0x74, 0x07, 0xd0, 0xbe, 0xa0, 0x4e, 0x2e, 0xbd, 0xc0, 0x9a, 0x1e, 0x3e,
  0x98, 0xee, 0x57, 0xbe, 0x18, 0x52, 0x6b, 0x3e, 0x84, 0x93, 0xbe, 0xbe,
  0x00, 0x43, 0xe2, 0xbb, 0x77, 0xdd, 0x32, 0x3f, 0xaa, 0x1c, 0x8d, 0x3e,
  0x6e, 0x75, 0xcc, 0xbd, 0xcb, 0xbc, 0xde, 0xbe, 0x3b, 0xe4, 0x7e, 0xbe,
  0xb5, 0xd2, 0xe2, 0x3e, 0x82, 0x15, 0xd9, 0xbe, 0x56, 0xcf, 0x9d, 0x3e,
  0x80, 0x57, 0x21, 0x3e, 0xba, 0xab, 0xa4, 0x3d, 0x80, 0x30, 0x9f, 0x3b,
  0x91, 0x4a, 0xf6, 0xbc, 0x86, 0xf8, 0x88, 0xbd, 0xfc, 0x9d, 0x76, 0x3e,
  0xfe, 0xc7, 0x2e, 0xbe, 0x3c, 0x1a, 0x6c, 0xbd, 0xfa, 0x78, 0xa9, 0x3e,
  0x48, 0x00, 0xd9, 0x3e, 0x38, 0x84, 0xae, 0x3e, 0x3d, 0xac, 0x89, 0x3d,
  0x37, 0x70, 0x0d, 0x3e, 0xc5, 0x39, 0x9b, 0xbd, 0xa1, 0x6f, 0x22, 0xbe,
  0xdc, 0x45, 0x85, 0x3d, 0x7b, 0xcd, 0xb3, 0xbe, 0x47, 0x38, 0x88, 0x3e,
  0xb5, 0x6e, 0x94, 0x3e, 0x5a, 0x0b, 0xbc, 0x3e, 0xc6, 0xd2, 0xa1, 0xbd,
  0xe2, 0x57, 0xae, 0xbe, 0xae, 0x3e, 0x77, 0xbe, 0x4f, 0xa7, 0xe6, 0x3e,
  0x48, 0x80, 0x70, 0xbe, 0x16, 0xe1, 0xc1, 0xbd, 0xc6, 0xc3, 0xda, 0xbe,
  0xf8, 0x91, 0x97, 0xbe, 0xa7, 0x1f, 0xc1, 0xbe, 0xd6, 0x64, 0x1b, 0x3e,
  0x00, 0xef, 0xf9, 0x3c, 0x20, 0x62, 0x6e, 0xbf, 0x82, 0x09, 0x16, 0xbf,
  0xb5, 0x64, 0x15, 0xbe, 0xaf, 0x72, 0x16, 0x3f, 0x0c, 0xf0, 0xa6, 0x3e,
  0xf4, 0x32, 0x2b, 0xbf, 0x1a, 0xa1, 0xe2, 0x3e, 0xa7, 0x4d, 0x1d, 0xbf,
  0xe2, 0xc0, 0x0b, 0x3f, 0xad, 0x0a, 0xc5, 0xbe, 0x74, 0xbc, 0x19, 0x3c,
  0xe0, 0x03, 0x52, 0xbe, 0x78, 0xee, 0x01, 0xbe, 0xf0, 0x4d, 0xb1, 0xbe,
  0xcc, 0x09, 0xee, 0x3e, 0x94, 0xc9, 0xad, 0xbe, 0x17, 0x44, 0x1a, 0xbf,
  0x61, 0xbb, 0x67, 0x3e, 0x5e, 0x12, 0xf7, 0x3e, 0x9a, 0x8b, 0xd2, 0x3e,
  0xca, 0x71, 0xfb, 0xbc, 0x4e, 0x82, 0xd9, 0xbe, 0x40, 0xd9, 0x00, 0x3f,
  0x1d, 0xb1, 0x07, 0xbe, 0x09, 0xe9, 0xb8, 0x3e, 0xe2, 0xfc, 0xff, 0xff,
  0x04, 0x00, 0x00, 0x00, 0x00, 0x02, 0x00, 0x00, 0x36, 0x99, 0xd1, 0xbd,
  0x40, 0xd3, 0xaa, 0x3c, 0x2e, 0x52, 0x03, 0x3f, 0x98, 0x1f, 0xbd, 0x3e,
  0x36, 0x7a, 0xb7, 0x3c, 0x63, 0xf0, 0xa2, 0x3e, 0xcd, 0x1d, 0x25, 0x3f,
  0xf3, 0x42, 0xab, 0x3e, 0x5b, 0x18, 0x84, 0xbe, 0xf1, 0xc1, 0xec, 0x3e,
  0xf1, 0xd6, 0x0d, 0x3f, 0x7c, 0x38, 0xcf, 0xbe, 0x84, 0x21, 0xd2, 0x3e,
  0xd7, 0x37, 0xbe, 0x3e, 0xee, 0x61, 0x6f, 0xbd, 0x1a, 0x5e, 0x05, 0xbf,
  0x98, 0x1f, 0x33, 0x3d, 0x26, 0xfa, 0x75, 0x3e, 0x69, 0x91, 0xa2, 0x3e,
  0x08, 0x22, 0x00, 0x3e, 0x31, 0xc2, 0x16, 0x3f, 0x5f, 0x23, 0xbe, 0x3e,
  0x6c, 0x51, 0x29, 0x3e, 0xfe, 0x56, 0x42, 0x3e, 0xb3, 0x09, 0xb7, 0x3e,
  0x6f, 0x09, 0xae, 0xbe, 0xfa, 0x86, 0xc3, 0xbe, 0x9c, 0x37, 0x9c, 0x3e,
  0x9f, 0xb9, 0x64, 0xbe, 0x6a, 0xf1, 0x05, 0x3e, 0x59, 0x2d, 0x43, 0xbd,
  0x85, 0x99, 0xc1, 0x3d, 0x5d, 0x30, 0x7c, 0xbe, 0x0c, 0xda, 0xc6, 0xbe,
  0x6f, 0x82, 0xde, 0x3e, 0xe0, 0x5b, 0xf6, 0xbe, 0x47, 0xed, 0x56, 0x3e,
  0x95, 0x24, 0xae, 0xbe, 0x09, 0x71, 0x07, 0x3e, 0x8a, 0xa9, 0xf4, 0x3d,
  0x98, 0xf6, 0x5b, 0xbc, 0x08, 0x9b, 0x1c, 0xbe, 0x5f, 0x71, 0x4e, 0x3e,
  0xb8, 0xe4, 0x4b, 0x3e, 0x85, 0xba, 0xff, 0x3e, 0xd9, 0x55, 0x1d, 0x3e,
  0xde, 0xbe, 0xff, 0x3e, 0x86, 0x89, 0xaa, 0x3d, 0xa3, 0x6f, 0x20, 0x3e,
  0x04, 0x43, 0xe9, 0xbe, 0x5a, 0x70, 0x1e, 0x3e, 0x48, 0xe3, 0xf4, 0x3e,
  0x5f, 0xd4, 0x8c, 0xbe, 0x09, 0x5a, 0x38, 0x3e, 0x08, 0xa1, 0xed, 0xbc,
  0xf8, 0xcc, 0x17, 0xbd, 0x36, 0xd8, 0xe4, 0xbe, 0xb1, 0x6c, 0xc2, 0xbe,
  0x83, 0xb3, 0x5e, 0xbe, 0xe0, 0x2a, 0x6c, 0x3d, 0xa8, 0x1d, 0x45, 0xbe,
  0x18, 0xdd, 0x3d, 0xbd, 0x35, 0x15, 0xfd, 0xbe, 0xfc, 0xc6, 0xbc, 0x3e,
  0x36, 0xf3, 0x2b, 0xbf, 0x98, 0xf7, 0xb0, 0x3e, 0xc0, 0x76, 0x10, 0x3f,
  0xd8, 0xc3, 0x67, 0xbe, 0x1f, 0x14, 0x58, 0x3e, 0xcc, 0x27, 0x5f, 0xbe,
  0x4e, 0x3f, 0xac, 0xbe, 0x66, 0xf8, 0xdc, 0x3e, 0x95, 0xe5, 0xba, 0xbe,
  0x58, 0x54, 0x2e, 0xbe, 0x68, 0x14, 0x98, 0x3e, 0x98, 0x09, 0x7d, 0xbe,
  0x5f, 0xab, 0x53, 0xbd, 0xde, 0x4e, 0xc2, 0xbd, 0x6f, 0x4b, 0x86, 0xbe,
  0x22, 0xf6, 0x09, 0x3f, 0xd0, 0xce, 0xfa, 0xbe, 0xf0, 0xa3, 0x57, 0x3e,
  0x84, 0x8c, 0x93, 0xbe, 0x90, 0x0a, 0x05, 0x3e, 0xf1, 0x2c, 0x52, 0xbe,
  0x1c, 0x89, 0x5e, 0x3e, 0x00, 0x2b, 0xca, 0xbc, 0x04, 0xb9, 0xa1, 0xbe,
  0xe3, 0xb8, 0x33, 0x3e, 0xa8, 0x6b, 0xe6, 0xbe, 0xef, 0x58, 0x08, 0xbe,
  0x90, 0x08, 0xb4, 0x3d, 0x86, 0xe7, 0xae, 0x3e, 0xf0, 0xe2, 0xd9, 0x3e,
  0x3a, 0x91, 0xdd, 0x3e, 0x9e, 0x15, 0x69, 0xba, 0x37, 0xb7, 0x7e, 0xbe,
  0x20, 0xe3, 0x89, 0x3d, 0x4e, 0xdf, 0x66, 0x3e, 0x10, 0x13, 0x13, 0x3e,
  0x44, 0xad, 0xc0, 0xbe, 0xf8, 0xe4, 0xcb, 0xbe, 0xd0, 0x98, 0xfc, 0x3b,
  0xcd, 0xbd, 0xa2, 0x3e, 0x85, 0x2d, 0xc0, 0x3e, 0xc0, 0x77, 0xd2, 0x3e,
  0x25, 0xd1, 0x4c, 0x3e, 0xd8, 0xfe, 0xee, 0x3e, 0x55, 0xad, 0xe3, 0xbe,
  0x7d, 0xfa, 0x7b, 0xbe, 0x34, 0xf6, 0x9d, 0xbe, 0x20, 0xbd, 0xf1, 0xbe,
  0xfa, 0x09, 0xad, 0xbe, 0xf0, 0x2b, 0x87, 0x3e, 0x74, 0xd1, 0x57, 0xbe,
  0xe0, 0xd7, 0x24, 0xbd, 0xf8, 0x7c, 0xa2, 0xbe, 0x46, 0x27, 0x1e, 0x3f,
  0x47, 0xb9, 0x8b, 0xbd, 0xd2, 0xe8, 0xdc, 0x3e, 0x60, 0xcf, 0xa8, 0xbd,
  0xcf, 0xf6, 0xb2, 0x3d, 0x66, 0xff, 0xec, 0xbe, 0xb0, 0x98, 0x5f, 0xbe,
  0x9f, 0x25, 0x9a, 0xbe, 0x95, 0x12, 0xe7, 0x3d, 0xcf, 0xec, 0x60, 0xbe,
  0xda, 0xd2, 0x40, 0x3e, 0xee, 0xfe, 0xff, 0xff, 0x04, 0x00, 0x00, 0x00,
  0xc0, 0x00, 0x00, 0x00, 0xfc, 0x72, 0xec, 0xbd, 0x3d, 0xb2, 0xc2, 0x3e,
  0x38, 0x63, 0x02, 0x3f, 0x35, 0x03, 0x8c, 0x3d, 0xcc, 0x96, 0xa0, 0x3e,
  0x98, 0x03, 0x94, 0xbe, 0x94, 0x5b, 0xd0, 0xbd, 0x14, 0xc2, 0xb6, 0x3e,
  0x99, 0x0a, 0xbf, 0xbd, 0x8f, 0xdb, 0xd4, 0xbe, 0xa2, 0x96, 0xcc, 0xbe,
  0x0e, 0x95, 0xc8, 0xbe, 0x16, 0xdc, 0xd4, 0xbe, 0xb6, 0x69, 0xf4, 0xbe,
  0x01, 0x60, 0xf5, 0x3e, 0x0f, 0x7e, 0x05, 0x3e, 0x94, 0xa9, 0xa4, 0x3e,
  0x2d, 0xa5, 0x0e, 0xbf, 0xfc, 0x6c, 0x85, 0x3d, 0x51, 0x29, 0x42, 0xbf,
  0x79, 0xda, 0x53, 0x3d, 0x7b, 0x70, 0x76, 0x3e, 0x61, 0x06, 0x4a, 0xbe,
  0xa2, 0xa4, 0xd9, 0xbe, 0x9b, 0x33, 0x46, 0x3e, 0x24, 0x31, 0xdc, 0x3e,
  0x0d, 0xc4, 0xe6, 0x3e, 0xea, 0x4c, 0x4a, 0x3e, 0x5c, 0x1a, 0xc3, 0xbe,
  0xe5, 0xd5, 0xa9, 0xbd, 0xe9, 0xd7, 0xc0, 0x3e, 0xe9, 0x74, 0xa6, 0xbe,
  0xd4, 0x82, 0x6c, 0xbe, 0x09, 0xbe, 0x4c, 0xbe, 0xd7, 0x98, 0xc4, 0x3e,
  0x25, 0xcd, 0xca, 0x3e, 0x71, 0xf5, 0x01, 0xbf, 0x60, 0xb0, 0x4a, 0x3d,
  0xc2, 0xfa, 0xdd, 0xbe, 0xf8, 0xbb, 0x6c, 0x3e, 0xb7, 0x56, 0xe9, 0xbe,
  0x4e, 0x58, 0x09, 0xbf, 0x03, 0x98, 0x02, 0xbf, 0x06, 0xef, 0x7b, 0x3e,
  0x0e, 0xdb, 0x0b, 0xbf, 0x70, 0x50, 0xf8, 0xbe, 0x07, 0x29, 0x48, 0x3e,
  0x51, 0x01, 0x88, 0x3d, 0xba, 0xff, 0xff, 0xff, 0x04, 0x00, 0x00, 0x00,
  0x0c, 0x00, 0x00, 0x00, 0x86, 0x3c, 0xbd, 0xbd, 0xcb, 0x2d, 0x8f, 0x3c,
  0xe0, 0x0a, 0x8d, 0xbc, 0xd2, 0xff, 0xff, 0xff, 0x04, 0x00, 0x00, 0x00,
  0x20, 0x00, 0x00, 0x00, 0x32, 0xb1, 0xd6, 0x3d, 0x30, 0x08, 0xaf, 0xbb,
  0xe7, 0x11, 0x09, 0x3e, 0x00, 0x00, 0x00, 0x00, 0xf3, 0x61, 0xbc, 0x3c,
  0x4d, 0x5e, 0xdc, 0x3c, 0xbd, 0xd3, 0x41, 0x3e, 0x3b, 0xf5, 0xde, 0x3d,
  0x00, 0x00, 0x06, 0x00, 0x08, 0x00, 0x04, 0x00, 0x06, 0x00, 0x00, 0x00,
  0x04, 0x00, 0x00, 0x00, 0x40, 0x00, 0x00, 0x00, 0x04, 0xcc, 0x3c, 0x3d,
  0x07, 0x47, 0x4c, 0x3d, 0xe8, 0x8a, 0x0a, 0xbd, 0xa5, 0xee, 0x5c, 0x3e,
  0x76, 0x4a, 0x3b, 0x3d, 0x7b, 0xab, 0x21, 0x3d, 0xed, 0x21, 0x63, 0x3d,
  0xe7, 0x34, 0x31, 0xbd, 0x2a, 0x92, 0x51, 0x3d, 0xf4, 0xa7, 0x96, 0x3d,
  0x98, 0x23, 0xe3, 0xbc, 0x48, 0xbd, 0xd0, 0x3d, 0xfd, 0x38, 0x8b, 0x3d,
  0xbf, 0x4b, 0xca, 0x3d, 0x4a, 0x1d, 0x6a, 0x3d, 0xa8, 0x4d, 0xbd, 0xbb,
  0x68, 0xf8, 0xff, 0xff, 0x6c, 0xf8, 0xff, 0xff, 0x0f, 0x00, 0x00, 0x00,
  0x4d, 0x4c, 0x49, 0x52, 0x20, 0x43, 0x6f, 0x6e, 0x76, 0x65, 0x72, 0x74,
  0x65, 0x64, 0x2e, 0x00, 0x01, 0x00, 0x00, 0x00, 0x14, 0x00, 0x00, 0x00,
  0x00, 0x00, 0x0e, 0x00, 0x18, 0x00, 0x14, 0x00, 0x10, 0x00, 0x0c, 0x00,
  0x08, 0x00, 0x04, 0x00, 0x0e, 0x00, 0x00, 0x00, 0x14, 0x00, 0x00, 0x00,
  0x1c, 0x00, 0x00, 0x00, 0x20, 0x01, 0x00, 0x00, 0x24, 0x01, 0x00, 0x00,
  0x28, 0x01, 0x00, 0x00, 0x04, 0x00, 0x00, 0x00, 0x6d, 0x61, 0x69, 0x6e,
  0x00, 0x00, 0x00, 0x00, 0x04, 0x00, 0x00, 0x00, 0xc8, 0x00, 0x00, 0x00,
  0x80, 0x00, 0x00, 0x00, 0x38, 0x00, 0x00, 0x00, 0x04, 0x00, 0x00, 0x00,
  0x9a, 0xff, 0xff, 0xff, 0x10, 0x00, 0x00, 0x00, 0x00, 0x00, 0x00, 0x08,
  0x0c, 0x00, 0x00, 0x00, 0x10, 0x00, 0x00, 0x00, 0xe8, 0xf8, 0xff, 0xff,
  0x01, 0x00, 0x00, 0x00, 0x0c, 0x00, 0x00, 0x00, 0x03, 0x00, 0x00, 0x00,
  0x0b, 0x00, 0x00, 0x00, 0x04, 0x00, 0x00, 0x00, 0x03, 0x00, 0x00, 0x00,
  0xca, 0xff, 0xff, 0xff, 0x10, 0x00, 0x00, 0x00, 0x00, 0x00, 0x00, 0x08,
  0x10, 0x00, 0x00, 0x00, 0x14, 0x00, 0x00, 0x00, 0x76, 0xff, 0xff, 0xff,
  0x00, 0x00, 0x00, 0x01, 0x01, 0x00, 0x00, 0x00, 0x0b, 0x00, 0x00, 0x00,
  0x03, 0x00, 0x00, 0x00, 0x0a, 0x00, 0x00, 0x00, 0x05, 0x00, 0x00, 0x00,
  0x01, 0x00, 0x00, 0x00, 0x00, 0x00, 0x0e, 0x00, 0x14, 0x00, 0x00, 0x00,
  0x10, 0x00, 0x0c, 0x00, 0x0b, 0x00, 0x04, 0x00, 0x0e, 0x00, 0x00, 0x00,
  0x10, 0x00, 0x00, 0x00, 0x00, 0x00, 0x00, 0x08, 0x10, 0x00, 0x00, 0x00,
  0x14, 0x00, 0x00, 0x00, 0xba, 0xff, 0xff, 0xff, 0x00, 0x00, 0x00, 0x01,
  0x01, 0x00, 0x00, 0x00, 0x0a, 0x00, 0x00, 0x00, 0x03, 0x00, 0x00, 0x00,
  0x09, 0x00, 0x00, 0x00, 0x06, 0x00, 0x00, 0x00, 0x02, 0x00, 0x00, 0x00,
  0x00, 0x00, 0x0e, 0x00, 0x16, 0x00, 0x00, 0x00, 0x10, 0x00, 0x0c, 0x00,
  0x0b, 0x00, 0x04, 0x00, 0x0e, 0x00, 0x00, 0x00, 0x18, 0x00, 0x00, 0x00,
  0x00, 0x00, 0x00, 0x08, 0x18, 0x00, 0x00, 0x00, 0x1c, 0x00, 0x00, 0x00,
  0x00, 0x00, 0x06, 0x00, 0x08, 0x00, 0x07, 0x00, 0x06, 0x00, 0x00, 0x00,
  0x00, 0x00, 0x00, 0x01, 0x01, 0x00, 0x00, 0x00, 0x09, 0x00, 0x00, 0x00,
  0x03, 0x00, 0x00, 0x00, 0x00, 0x00, 0x00, 0x00, 0x07, 0x00, 0x00, 0x00,
  0x08, 0x00, 0x00, 0x00, 0x01, 0x00, 0x00, 0x00, 0x0c, 0x00, 0x00, 0x00,
  0x01, 0x00, 0x00, 0x00, 0x00, 0x00, 0x00, 0x00, 0x0d, 0x00, 0x00, 0x00,
  0xfc, 0x05, 0x00, 0x00, 0x64, 0x05, 0x00, 0x00, 0xd0, 0x04, 0x00, 0x00,
  0x7c, 0x04, 0x00, 0x00, 0x24, 0x04, 0x00, 0x00, 0xc8, 0x03, 0x00, 0x00,
  0x70, 0x03, 0x00, 0x00, 0x14, 0x03, 0x00, 0x00, 0x94, 0x02, 0x00, 0x00,
  0xd4, 0x01, 0x00, 0x00, 0x20, 0x01, 0x00, 0x00, 0x60, 0x00, 0x00, 0x00,
  0x04, 0x00, 0x00, 0x00, 0x4e, 0xfa, 0xff, 0xff, 0x00, 0x00, 0x00, 0x01,
  0x14, 0x00, 0x00, 0x00, 0x1c, 0x00, 0x00, 0x00, 0x1c, 0x00, 0x00, 0x00,
  0x0d, 0x00, 0x00, 0x00, 0x34, 0x00, 0x00, 0x00, 0x02, 0x00, 0x00, 0x00,
  0xff, 0xff, 0xff, 0xff, 0x03, 0x00, 0x00, 0x00, 0x38, 0xfa, 0xff, 0xff,
  0x1b, 0x00, 0x00, 0x00, 0x53, 0x74, 0x61, 0x74, 0x65, 0x66, 0x75, 0x6c,
  0x50, 0x61, 0x72, 0x74, 0x69, 0x74, 0x69, 0x6f, 0x6e, 0x65, 0x64, 0x43,
  0x61, 0x6c, 0x6c, 0x5f, 0x31, 0x3a, 0x30, 0x00, 0x02, 0x00, 0x00, 0x00,
  0x01, 0x00, 0x00, 0x00, 0x03, 0x00, 0x00, 0x00, 0xa6, 0xfa, 0xff, 0xff,
  0x00, 0x00, 0x00, 0x01, 0x14, 0x00, 0x00, 0x00, 0x1c, 0x00, 0x00, 0x00,
  0x1c, 0x00, 0x00, 0x00, 0x0c, 0x00, 0x00, 0x00, 0x98, 0x00, 0x00, 0x00,
  0x02, 0x00, 0x00, 0x00, 0xff, 0xff, 0xff, 0xff, 0x10, 0x00, 0x00, 0x00,
  0x90, 0xfa, 0xff, 0xff, 0x7c, 0x00, 0x00, 0x00, 0x53, 0x65, 0x6e, 0x73,
  0x65, 0x77, 0x61, 0x72, 0x65, 0x41, 0x75, 0x74, 0x6f, 0x65, 0x6e, 0x63,
  0x6f, 0x64, 0x65, 0x72, 0x5f, 0x31, 0x2f, 0x64, 0x65, 0x63, 0x6f, 0x64,
  0x65, 0x72, 0x5f, 0x31, 0x5f, 0x31, 0x2f, 0x4d, 0x61, 0x74, 0x4d, 0x75,
  0x6c, 0x3b, 0x53, 0x65, 0x6e, 0x73, 0x65, 0x77, 0x61, 0x72, 0x65, 0x41,
  0x75, 0x74, 0x6f, 0x65, 0x6e, 0x63, 0x6f, 0x64, 0x65, 0x72, 0x5f, 0x31,
  0x2f, 0x64, 0x65, 0x63, 0x6f, 0x64, 0x65, 0x72, 0x5f, 0x31, 0x5f, 0x31,
  0x2f, 0x52, 0x65, 0x6c, 0x75, 0x3b, 0x53, 0x65, 0x6e, 0x73, 0x65, 0x77,
  0x61, 0x72, 0x65, 0x41, 0x75, 0x74, 0x6f, 0x65, 0x6e, 0x63, 0x6f, 0x64,
  0x65, 0x72, 0x5f, 0x31, 0x2f, 0x64, 0x65, 0x63, 0x6f, 0x64, 0x65, 0x72,
  0x5f, 0x31, 0x5f, 0x31, 0x2f, 0x42, 0x69, 0x61, 0x73, 0x41, 0x64, 0x64,
  0x00, 0x00, 0x00, 0x00, 0x02, 0x00, 0x00, 0x00, 0x01, 0x00, 0x00, 0x00,
  0x10, 0x00, 0x00, 0x00, 0x62, 0xfb, 0xff, 0xff, 0x00, 0x00, 0x00, 0x01,
  0x14, 0x00, 0x00, 0x00, 0x1c, 0x00, 0x00, 0x00, 0x1c, 0x00, 0x00, 0x00,
  0x0b, 0x00, 0x00, 0x00, 0x8c, 0x00, 0x00, 0x00, 0x02, 0x00, 0x00, 0x00,
  0xff, 0xff, 0xff, 0xff, 0x08, 0x00, 0x00, 0x00, 0x4c, 0xfb, 0xff, 0xff,
  0x73, 0x00, 0x00, 0x00, 0x53, 0x65, 0x6e, 0x73, 0x65, 0x77, 0x61, 0x72,
  0x65, 0x41, 0x75, 0x74, 0x6f, 0x65, 0x6e, 0x63, 0x6f, 0x64, 0x65, 0x72,
  0x5f, 0x31, 0x2f, 0x6c, 0x61, 0x74, 0x65, 0x6e, 0x74, 0x5f, 0x31, 0x2f,
  0x4d, 0x61, 0x74, 0x4d, 0x75, 0x6c, 0x3b, 0x53, 0x65, 0x6e, 0x73, 0x65,
  0x77, 0x61, 0x72, 0x65, 0x41, 0x75, 0x74, 0x6f, 0x65, 0x6e, 0x63, 0x6f,
  0x64, 0x65, 0x72, 0x5f, 0x31, 0x2f, 0x6c, 0x61, 0x74, 0x65, 0x6e, 0x74,
  0x5f, 0x31, 0x2f, 0x52, 0x65, 0x6c, 0x75, 0x3b, 0x53, 0x65, 0x6e, 0x73,
  0x65, 0x77, 0x61, 0x72, 0x65, 0x41, 0x75, 0x74, 0x6f, 0x65, 0x6e, 0x63,
  0x6f, 0x64, 0x65, 0x72, 0x5f, 0x31, 0x2f, 0x6c, 0x61, 0x74, 0x65, 0x6e,
  0x74, 0x5f, 0x31, 0x2f, 0x42, 0x69, 0x61, 0x73, 0x41, 0x64, 0x64, 0x00,
  0x02, 0x00, 0x00, 0x00, 0x01, 0x00, 0x00, 0x00, 0x08, 0x00, 0x00, 0x00,
  0x12, 0xfc, 0xff, 0xff, 0x00, 0x00, 0x00, 0x01, 0x14, 0x00, 0x00, 0x00,
  0x1c, 0x00, 0x00, 0x00, 0x1c, 0x00, 0x00, 0x00, 0x0a, 0x00, 0x00, 0x00,
  0x98, 0x00, 0x00, 0x00, 0x02, 0x00, 0x00, 0x00, 0xff, 0xff, 0xff, 0xff,
  0x10, 0x00, 0x00, 0x00, 0xfc, 0xfb, 0xff, 0xff, 0x7c, 0x00, 0x00, 0x00,
  0x53, 0x65, 0x6e, 0x73, 0x65, 0x77, 0x61, 0x72, 0x65, 0x41, 0x75, 0x74,
  0x6f, 0x65, 0x6e, 0x63, 0x6f, 0x64, 0x65, 0x72, 0x5f, 0x31, 0x2f, 0x65,
  0x6e, 0x63, 0x6f, 0x64, 0x65, 0x72, 0x5f, 0x31, 0x5f, 0x31, 0x2f, 0x4d,
  0x61, 0x74, 0x4d, 0x75, 0x6c, 0x3b, 0x53, 0x65, 0x6e, 0x73, 0x65, 0x77,
  0x61, 0x72, 0x65, 0x41, 0x75, 0x74, 0x6f, 0x65, 0x6e, 0x63, 0x6f, 0x64,
  0x65, 0x72, 0x5f, 0x31, 0x2f, 0x65, 0x6e, 0x63, 0x6f, 0x64, 0x65, 0x72,
  0x5f, 0x31, 0x5f, 0x31, 0x2f, 0x52, 0x65, 0x6c, 0x75, 0x3b, 0x53, 0x65,
  0x6e, 0x73, 0x65, 0x77, 0x61, 0x72, 0x65, 0x41, 0x75, 0x74, 0x6f, 0x65,
  0x6e, 0x63, 0x6f, 0x64, 0x65, 0x72, 0x5f, 0x31, 0x2f, 0x65, 0x6e, 0x63,
  0x6f, 0x64, 0x65, 0x72, 0x5f, 0x31, 0x5f, 0x31, 0x2f, 0x42, 0x69, 0x61,
  0x73, 0x41, 0x64, 0x64, 0x00, 0x00, 0x00, 0x00, 0x02, 0x00, 0x00, 0x00,
  0x01, 0x00, 0x00, 0x00, 0x10, 0x00, 0x00, 0x00, 0x62, 0xfd, 0xff, 0xff,
  0x00, 0x00, 0x00, 0x01, 0x10, 0x00, 0x00, 0x00, 0x10, 0x00, 0x00, 0x00,
  0x09, 0x00, 0x00, 0x00, 0x60, 0x00, 0x00, 0x00, 0xa8, 0xfc, 0xff, 0xff,
  0x52, 0x00, 0x00, 0x00, 0x53, 0x65, 0x6e, 0x73, 0x65, 0x77, 0x61, 0x72,
  0x65, 0x41, 0x75, 0x74, 0x6f, 0x65, 0x6e, 0x63, 0x6f, 0x64, 0x65, 0x72,
  0x5f, 0x31, 0x2f, 0x65, 0x6e, 0x63, 0x6f, 0x64, 0x65, 0x72, 0x5f, 0x31,
  0x5f, 0x31, 0x2f, 0x52, 0x65, 0x6c, 0x75, 0x3b, 0x53, 0x65, 0x6e, 0x73,
  0x65, 0x77, 0x61, 0x72, 0x65, 0x41, 0x75, 0x74, 0x6f, 0x65, 0x6e, 0x63,
  0x6f, 0x64, 0x65, 0x72, 0x5f, 0x31, 0x2f, 0x65, 0x6e, 0x63, 0x6f, 0x64,
  0x65, 0x72, 0x5f, 0x31, 0x5f, 0x31, 0x2f, 0x42, 0x69, 0x61, 0x73, 0x41,
  0x64, 0x64, 0x00, 0x00, 0x01, 0x00, 0x00, 0x00, 0x10, 0x00, 0x00, 0x00,
  0xde, 0xfd, 0xff, 0xff, 0x00, 0x00, 0x00, 0x01, 0x10, 0x00, 0x00, 0x00,
  0x10, 0x00, 0x00, 0x00, 0x08, 0x00, 0x00, 0x00, 0x38, 0x00, 0x00, 0x00,
  0x24, 0xfd, 0xff, 0xff, 0x29, 0x00, 0x00, 0x00, 0x53, 0x65, 0x6e, 0x73,
  0x65, 0x77, 0x61, 0x72, 0x65, 0x41, 0x75, 0x74, 0x6f, 0x65, 0x6e, 0x63,
  0x6f, 0x64, 0x65, 0x72, 0x5f, 0x31, 0x2f, 0x65, 0x6e, 0x63, 0x6f, 0x64,
  0x65, 0x72, 0x5f, 0x31, 0x5f, 0x31, 0x2f, 0x4d, 0x61, 0x74, 0x4d, 0x75,
  0x6c, 0x00, 0x00, 0x00, 0x02, 0x00, 0x00, 0x00, 0x10, 0x00, 0x00, 0x00,
  0x03, 0x00, 0x00, 0x00, 0x36, 0xfe, 0xff, 0xff, 0x00, 0x00, 0x00, 0x01,
  0x10, 0x00, 0x00, 0x00, 0x10, 0x00, 0x00, 0x00, 0x07, 0x00, 0x00, 0x00,
  0x34, 0x00, 0x00, 0x00, 0x7c, 0xfd, 0xff, 0xff, 0x26, 0x00, 0x00, 0x00,
  0x53, 0x65, 0x6e, 0x73, 0x65, 0x77, 0x61, 0x72, 0x65, 0x41, 0x75, 0x74,
  0x6f, 0x65, 0x6e, 0x63, 0x6f, 0x64, 0x65, 0x72, 0x5f, 0x31, 0x2f, 0x6c,
  0x61, 0x74, 0x65, 0x6e, 0x74, 0x5f, 0x31, 0x2f, 0x4d, 0x61, 0x74, 0x4d,
  0x75, 0x6c, 0x00, 0x00, 0x02, 0x00, 0x00, 0x00, 0x08, 0x00, 0x00, 0x00,
  0x10, 0x00, 0x00, 0x00, 0x8a, 0xfe, 0xff, 0xff, 0x00, 0x00, 0x00, 0x01,
  0x10, 0x00, 0x00, 0x00, 0x10, 0x00, 0x00, 0x00, 0x06, 0x00, 0x00, 0x00,
  0x38, 0x00, 0x00, 0x00, 0xd0, 0xfd, 0xff, 0xff, 0x29, 0x00, 0x00, 0x00,
  0x53, 0x65, 0x6e, 0x73, 0x65, 0x77, 0x61, 0x72, 0x65, 0x41, 0x75, 0x74,
  0x6f, 0x65, 0x6e, 0x63, 0x6f, 0x64, 0x65, 0x72, 0x5f, 0x31, 0x2f, 0x64,
  0x65, 0x63, 0x6f, 0x64, 0x65, 0x72, 0x5f, 0x31, 0x5f, 0x31, 0x2f, 0x4d,
  0x61, 0x74, 0x4d, 0x75, 0x6c, 0x00, 0x00, 0x00, 0x02, 0x00, 0x00, 0x00,
  0x10, 0x00, 0x00, 0x00, 0x08, 0x00, 0x00, 0x00, 0xe2, 0xfe, 0xff, 0xff,
  0x00, 0x00, 0x00, 0x01, 0x10, 0x00, 0x00, 0x00, 0x10, 0x00, 0x00, 0x00,
  0x05, 0x00, 0x00, 0x00, 0x34, 0x00, 0x00, 0x00, 0x28, 0xfe, 0xff, 0xff,
  0x26, 0x00, 0x00, 0x00, 0x53, 0x65, 0x6e, 0x73, 0x65, 0x77, 0x61, 0x72,
  0x65, 0x41, 0x75, 0x74, 0x6f, 0x65, 0x6e, 0x63, 0x6f, 0x64, 0x65, 0x72,
  0x5f, 0x31, 0x2f, 0x6f, 0x75, 0x74, 0x70, 0x75, 0x74, 0x5f, 0x31, 0x2f,
  0x4d, 0x61, 0x74, 0x4d, 0x75, 0x6c, 0x00, 0x00, 0x02, 0x00, 0x00, 0x00,
  0x03, 0x00, 0x00, 0x00, 0x10, 0x00, 0x00, 0x00, 0x36, 0xff, 0xff, 0xff,
  0x00, 0x00, 0x00, 0x01, 0x10, 0x00, 0x00, 0x00, 0x10, 0x00, 0x00, 0x00,
  0x04, 0x00, 0x00, 0x00, 0x34, 0x00, 0x00, 0x00, 0x7c, 0xfe, 0xff, 0xff,
  0x27, 0x00, 0x00, 0x00, 0x53, 0x65, 0x6e, 0x73, 0x65, 0x77, 0x61, 0x72,
  0x65, 0x41, 0x75, 0x74, 0x6f, 0x65, 0x6e, 0x63, 0x6f, 0x64, 0x65, 0x72,
  0x5f, 0x31, 0x2f, 0x6f, 0x75, 0x74, 0x70, 0x75, 0x74, 0x5f, 0x31, 0x2f,
  0x42, 0x69, 0x61, 0x73, 0x41, 0x64, 0x64, 0x00, 0x01, 0x00, 0x00, 0x00,
  0x03, 0x00, 0x00, 0x00, 0x86, 0xff, 0xff, 0xff, 0x00, 0x00, 0x00, 0x01,
  0x10, 0x00, 0x00, 0x00, 0x10, 0x00, 0x00, 0x00, 0x03, 0x00, 0x00, 0x00,
  0x5c, 0x00, 0x00, 0x00, 0xcc, 0xfe, 0xff, 0xff, 0x4c, 0x00, 0x00, 0x00,
  0x53, 0x65, 0x6e, 0x73, 0x65, 0x77, 0x61, 0x72, 0x65, 0x41, 0x75, 0x74,
  0x6f, 0x65, 0x6e, 0x63, 0x6f, 0x64, 0x65, 0x72, 0x5f, 0x31, 0x2f, 0x6c,
  0x61, 0x74, 0x65, 0x6e, 0x74, 0x5f, 0x31, 0x2f, 0x52, 0x65, 0x6c, 0x75,
  0x3b, 0x53, 0x65, 0x6e, 0x73, 0x65, 0x77, 0x61, 0x72, 0x65, 0x41, 0x75,
  0x74, 0x6f, 0x65, 0x6e, 0x63, 0x6f, 0x64, 0x65, 0x72, 0x5f, 0x31, 0x2f,
  0x6c, 0x61, 0x74, 0x65, 0x6e, 0x74, 0x5f, 0x31, 0x2f, 0x42, 0x69, 0x61,
  0x73, 0x41, 0x64, 0x64, 0x00, 0x00, 0x00, 0x00, 0x01, 0x00, 0x00, 0x00,
  0x08, 0x00, 0x00, 0x00, 0x00, 0x00, 0x16, 0x00, 0x18, 0x00, 0x14, 0x00,
  0x00, 0x00, 0x10, 0x00, 0x0c, 0x00, 0x08, 0x00, 0x00, 0x00, 0x00, 0x00,
  0x00, 0x00, 0x07, 0x00, 0x16, 0x00, 0x00, 0x00, 0x00, 0x00, 0x00, 0x01,
  0x10, 0x00, 0x00, 0x00, 0x10, 0x00, 0x00, 0x00, 0x02, 0x00, 0x00, 0x00,
  0x60, 0x00, 0x00, 0x00, 0x5c, 0xff, 0xff, 0xff, 0x52, 0x00, 0x00, 0x00,
  0x53, 0x65, 0x6e, 0x73, 0x65, 0x77, 0x61, 0x72, 0x65, 0x41, 0x75, 0x74,
  0x6f, 0x65, 0x6e, 0x63, 0x6f, 0x64, 0x65, 0x72, 0x5f, 0x31, 0x2f, 0x64,
  0x65, 0x63, 0x6f, 0x64, 0x65, 0x72, 0x5f, 0x31, 0x5f, 0x31, 0x2f, 0x52,
  0x65, 0x6c, 0x75, 0x3b, 0x53, 0x65, 0x6e, 0x73, 0x65, 0x77, 0x61, 0x72,
  0x65, 0x41, 0x75, 0x74, 0x6f, 0x65, 0x6e, 0x63, 0x6f, 0x64, 0x65, 0x72,
  0x5f, 0x31, 0x2f, 0x64, 0x65, 0x63, 0x6f, 0x64, 0x65, 0x72, 0x5f, 0x31,
  0x5f, 0x31, 0x2f, 0x42, 0x69, 0x61, 0x73, 0x41, 0x64, 0x64, 0x00, 0x00,
  0x01, 0x00, 0x00, 0x00, 0x10, 0x00, 0x00, 0x00, 0x00, 0x00, 0x16, 0x00,
  0x1c, 0x00, 0x18, 0x00, 0x00, 0x00, 0x14, 0x00, 0x10, 0x00, 0x0c, 0x00,
  0x00, 0x00, 0x00, 0x00, 0x08, 0x00, 0x07, 0x00, 0x16, 0x00, 0x00, 0x00,
  0x00, 0x00, 0x00, 0x01, 0x14, 0x00, 0x00, 0x00, 0x20, 0x00, 0x00, 0x00,
  0x20, 0x00, 0x00, 0x00, 0x01, 0x00, 0x00, 0x00, 0x3c, 0x00, 0x00, 0x00,
  0x02, 0x00, 0x00, 0x00, 0xff, 0xff, 0xff, 0xff, 0x03, 0x00, 0x00, 0x00,
  0x04, 0x00, 0x04, 0x00, 0x04, 0x00, 0x00, 0x00, 0x1e, 0x00, 0x00, 0x00,
  0x73, 0x65, 0x72, 0x76, 0x69, 0x6e, 0x67, 0x5f, 0x64, 0x65, 0x66, 0x61,
  0x75, 0x6c, 0x74, 0x5f, 0x6b, 0x65, 0x72, 0x61, 0x73, 0x5f, 0x74, 0x65,
  0x6e, 0x73, 0x6f, 0x72, 0x3a, 0x30, 0x00, 0x00, 0x02, 0x00, 0x00, 0x00,
  0x01, 0x00, 0x00, 0x00, 0x03, 0x00, 0x00, 0x00, 0x01, 0x00, 0x00, 0x00,
  0x10, 0x00, 0x00, 0x00, 0x0c, 0x00, 0x0c, 0x00, 0x0b, 0x00, 0x00, 0x00,
  0x00, 0x00, 0x04, 0x00, 0x0c, 0x00, 0x00, 0x00, 0x09, 0x00, 0x00, 0x00,
  0x00, 0x00, 0x00, 0x09
};
unsigned int senseware_model_tflite_len = 4216;

#endif /* SENSEWARE_MODEL_DATA_H */
